{
  "version": "1.0",
  "truncation": null,
  "padding": null,
  "added_tokens": [
    {
      "id": 0,
      "content": "<unk>",
      "single_word": false,
      "lstrip": false,
      "rstrip": false,
      "normalized": false,
      "special": true
    }
  ],
  "normalizer": null,
  "pre_tokenizer": {
    "type": "ByteLevel",
    "add_prefix_space": false,
    "trim_offsets": true,
    "use_regex": true
  },
  "post_processor": null,
  "decoder": {
    "type": "ByteLevel",
    "add_prefix_space": true,
    "trim_offsets": true,
    "use_regex": true
  },
  "model": {
    "type": "BPE",
    "dropout": null,
    "unk_token": "<unk>",
    "continuing_subword_prefix": null,
    "end_of_word_suffix": null,
    "fuse_unk": false,
    "byte_fallback": false,
    "ignore_merges": false,
    "vocab": {
      "<unk>": 0,
      "!": 1,
      "\"": 2,
      "#": 3,
      "$": 4,
      "%": 5,
      "&": 6,
      "'": 7,
      "(": 8,
      ")": 9,
      "*": 10,
      "+": 11,
      ",": 12,
      "-": 13,
      ".": 14,
      "/": 15,
      "0": 16,
      "1": 17,
      "2": 18,
      "3": 19,
      "4": 20,
      "5": 21,
      "6": 22,
      "7": 23,
      "8": 24,
      "9": 25,
      ":": 26,
      ";": 27,
      "<": 28,
      "=": 29,
      ">": 30,
      "?": 31,
      "@": 32,
      "A": 33,
      "B": 34,
      "C": 35,
      "D": 36,
      "E": 37,
      "F": 38,
      "G": 39,
      "H": 40,
      "I": 41,
      "J": 42,
      "K": 43,
      "L": 44,
      "M": 45,
      "N": 46,
      "O": 47,
      "P": 48,
      "Q": 49,
      "R": 50,
      "S": 51,
      "T": 52,
      "U": 53,
      "V": 54,
      "W": 55,
      "X": 56,
      "Y": 57,
      "Z": 58,
      "[": 59,
      "\\": 60,
      "]": 61,
      "^": 62,
      "_": 63,
      "`": 64,
      "a": 65,
      "b": 66,
      "c": 67,
      "d": 68,
      "e": 69,
      "f": 70,
      "g": 71,
      "h": 72,
      "i": 73,
      "j": 74,
      "k": 75,
      "l": 76,
      "m": 77,
      "n": 78,
      "o": 79,
      "p": 80,
      "q": 81,
      "r": 82,
      "s": 83,
      "t": 84,
      "u": 85,
      "v": 86,
      "w": 87,
      "x": 88,
      "y": 89,
      "z": 90,
      "{": 91,
      "|": 92,
      "}": 93,
      "~": 94,
      "¡": 95,
      "¢": 96,
      "£": 97,
      "¤": 98,
      "¥": 99,
      "¦": 100,
      "§": 101,
      "¨": 102,
      "©": 103,
      "ª": 104,
      "«": 105,
      "¬": 106,
      "®": 107,
      "¯": 108,
      "°": 109,
      "±": 110,
      "²": 111,
      "³": 112,
      "´": 113,
      "µ": 114,
      "¶": 115,
      "·": 116,
      "¸": 117,
      "¹": 118,
      "º": 119,
      "»": 120,
      "¼": 121,
      "½": 122,
      "¾": 123,
      "¿": 124,
      "Â": 125,
      "Ã": 126,
      "Ä": 127,
      "Å": 128,
      "Æ": 129,
      "Ç": 130,
      "È": 131,
      "Ë": 132,
      "Î": 133,
      "Ï": 134,
      "Ð": 135,
      "Ñ": 136,
      "Ò": 137,
      "×": 138,
      "Ø": 139,
      "Ù": 140,
      "Ú": 141,
      "Û": 142,
      "à": 143,
      "á": 144,
      "â": 145,
      "ã": 146,
      "ä": 147,
      "å": 148,
      "æ": 149,
      "ç": 150,
      "è": 151,
      "é": 152,
      "ê": 153,
      "ë": 154,
      "ì": 155,
      "í": 156,
      "ï": 157,
      "ð": 158,
      "ĉ": 159,
      "Ċ": 160,
      "Ġ": 161,
      "Ģ": 162,
      "ģ": 163,
      "Ĥ": 164,
      "ĥ": 165,
      "Ħ": 166,
      "ħ": 167,
      "Ĩ": 168,
      "ĩ": 169,
      "Ī": 170,
      "ī": 171,
      "Ĭ": 172,
      "ĭ": 173,
      "Į": 174,
      "į": 175,
      "İ": 176,
      "ı": 177,
      "Ĳ": 178,
      "ĳ": 179,
      "Ĵ": 180,
      "ĵ": 181,
      "Ķ": 182,
      "ķ": 183,
      "ĸ": 184,
      "Ĺ": 185,
      "ĺ": 186,
      "Ļ": 187,
      "ļ": 188,
      "Ľ": 189,
      "ľ": 190,
      "Ŀ": 191,
      "ŀ": 192,
      "Ł": 193,
      "ł": 194,
      "Ń": 195,
      "Ġt": 196,
      "Ġa": 197,
      "he": 198,
      "in": 199,
      "re": 200,
      "Ġthe": 201,
      "on": 202,
      "er": 203,
      "Ġs": 204,
      "at": 205,
      "Ġo": 206,
      "ĠĠ": 207,
      "en": 208,
      "Ġw": 209,
      "Ġc": 210,
      "nd": 211,
      "es": 212,
      "it": 213,
      "is": 214,
      "or": 215,
      "ed": 216,
      "Ġp": 217,
      "ing": 218,
      "Ġf": 219,
      "Ġof": 220,
      "Ġb": 221,
      "ou": 222,
      "al": 223,
      "an": 224,
      "ar": 225,
      "Ġand": 226,
      "Ġin": 227,
      "Ġto": 228,
      "Ġm": 229,
      "ion": 230,
      "Ġd": 231,
      "ic": 232,
      "le": 233,
      "ĠĠĠĠ": 234,
      "Ġh": 235,
      "as": 236,
      "om": 237,
      "Ġth": 238,
      "ent": 239,
      "il": 240,
      "Ġre": 241,
      "ro": 242,
      "Ġe": 243,
      "ve": 244,
      "st": 245,
      "Ġl": 246,
      "ct": 247,
      "Ġn": 248,
      "Ġbe": 249,
      "ĠS": 250,
      "ol": 251,
      "ĠT": 252,
      "âĢ": 253,
      "--": 254,
      "ly": 255,
      "Ġg": 256,
      "ation": 257,
      "Ġis": 258,
      "se": 259,
      "..": 260,
      "ot": 261,
      "id": 262,
      "ĠI": 263,
      "ch": 264,
      "ra": 265,
      "ut": 266,
      "ce": 267,
      "ĠA": 268,
      "im": 269,
      "ĠC": 270,
      "Ġst": 271,
      "Ġfor": 272,
      "ur": 273,
      "ow": 274,
      "et": 275,
      "Ġy": 276,
      "Ġthat": 277,
      "her": 278,
      "Ġon": 279,
      "Ġu": 280,
      "ig": 281,
      "ver": 282,
      "ir": 283,
      "ĠĠĠĠĠĠĠĠ": 284,
      "am": 285,
      "el": 286,
      "ay": 287,
      "ad": 288,
      "ĠM": 289,
      "ith": 290,
      "Ġyou": 291,
      "Ġ1": 292,
      "ul": 293,
      "Ġas": 294,
      "if": 295,
      "Ġwith": 296,
      "ter": 297,
      "Ġwh": 298,
      "ĠP": 299,
      "ĠH": 300,
      "Ġal": 301,
      "Ġan": 302,
      "Ġ|": 303,
      "Ġit": 304,
      "Ġpro": 305,
      "em": 306,
      "Ġare": 307,
      "Ġcon": 308,
      "ĠThe": 309,
      "od": 310,
      "Ġ(": 311,
      "Ġor": 312,
      "oc": 313,
      "ĠB": 314,
      "ri": 315,
      "op": 316,
      "ere": 317,
      "ge": 318,
      "ess": 319,
      "ill": 320,
      "Ġwas": 321,
      "ist": 322,
      "ud": 323,
      "ac": 324,
      "Ġhe": 325,
      "ers": 326,
      "ate": 327,
      "ment": 328,
      "ld": 329,
      "ĠW": 330,
      "ity": 331,
      "Ġ2": 332,
      "----": 333,
      "Ġex": 334,
      "th": 335,
      "ab": 336,
      "Ġch": 337,
      "ke": 338,
      "est": 339,
      "....": 340,
      "Ġsu": 341,
      "ĠR": 342,
      "nt": 343,
      "ĠE": 344,
      "ies": 345,
      "Ġcom": 346,
      "res": 347,
      "Ġha": 348,
      "ĠD": 349,
      "us": 350,
      "Ġde": 351,
      "pp": 352,
      "Ġat": 353,
      "ive": 354,
      "rom": 355,
      "um": 356,
      "ect": 357,
      "ĠL": 358,
      "âĢĻ": 359,
      "qu": 360,
      "ain": 361,
      "os": 362,
      "Ġv": 363,
      "ĠF": 364,
      "ore": 365,
      "iv": 366,
      "igh": 367,
      "ew": 368,
      "Ġby": 369,
      "ort": 370,
      "ant": 371,
      "Ġnot": 372,
      "ust": 373,
      "and": 374,
      "un": 375,
      "art": 376,
      "ĠG": 377,
      "Ġle": 378,
      "ĠN": 379,
      "Ġfrom": 380,
      "ĠâĢ": 381,
      "Ġse": 382,
      "ure": 383,
      "Ġthis": 384,
      "ial": 385,
      "rou": 386,
      "ĠJ": 387,
      "ould": 388,
      "gh": 389,
      "Ġhave": 390,
      "Ġsh": 391,
      "our": 392,
      "ear": 393,
      "Ġr": 394,
      "Ġab": 395,
      "Ġen": 396,
      "Ġcan": 397,
      "ĠO": 398,
      "ard": 399,
      "Ġtheir": 400,
      "ome": 401,
      "00": 402,
      "ight": 403,
      "Ġwor": 404,
      "out": 405,
      "Ġsp": 406,
      "ical": 407,
      "og": 408,
      "per": 409,
      "Ġthey": 410,
      "ents": 411,
      "are": 412,
      "ions": 413,
      "ĠĠĠĠĠĠĠĠĠĠĠĠĠĠĠĠ": 414,
      "all": 415,
      "Âł": 416,
      "pt": 417,
      "ag": 418,
      "ich": 419,
      "'s": 420,
      "Ġall": 421,
      "uc": 422,
      "ild": 423,
      "ther": 424,
      "ost": 425,
      "Ġpl": 426,
      "ff": 427,
      "The": 428,
      "ec": 429,
      "ip": 430,
      "Ġwe": 431,
      "Ġstud": 432,
      "ated": 433,
      "Ġyour": 434,
      "Ġwhe": 435,
      "ood": 436,
      "end": 437,
      "Ġad": 438,
      "ide": 439,
      "Ġim": 440,
      "Ġint": 441,
      "ak": 442,
      "__": 443,
      "Ġwere": 444,
      "ary": 445,
      "ous": 446,
      "ell": 447,
      "iz": 448,
      "Ġus": 449,
      "ult": 450,
      "ast": 451,
      "ine": 452,
      "Ġdo": 453,
      "Ġne": 454,
      "........": 455,
      "Ġwill": 456,
      "ans": 457,
      "Ġk": 458,
      "Ġres": 459,
      "ĠU": 460,
      "ĠIn": 461,
      "Ġher": 462,
      "--------": 463,
      "Ġte": 464,
      "vel": 465,
      "pl": 466,
      "ĠSt": 467,
      "cc": 468,
      "Ġme": 469,
      "au": 470,
      "Ġwhich": 471,
      "age": 472,
      "ber": 473,
      "ok": 474,
      "ake": 475,
      "ach": 476,
      "Ġinc": 477,
      "Ġcont": 478,
      "ap": 479,
      "Ġbut": 480,
      "ance": 481,
      "act": 482,
      "Ġman": 483,
      "ire": 484,
      "Ġhas": 485,
      "ice": 486,
      "à¤": 487,
      "ĊĊ": 488,
      "ia": 489,
      "able": 490,
      "Ġdis": 491,
      "so": 492,
      "Ġcl": 493,
      "ĠTh": 494,
      "orm": 495,
      "ru": 496,
      "ations": 497,
      "Ġwho": 498,
      "ong": 499,
      "Ġone": 500,
      "Ġout": 501,
      "ass": 502,
      "Ġmore": 503,
      "ater": 504,
      "Ġabout": 505,
      "ib": 506,
      "ack": 507,
      "ish": 508,
      "ual": 509,
      "ry": 510,
      "ind": 511,
      "Ġother": 512,
      "ount": 513,
      "Ġj": 514,
      "ie": 515,
      "Ġthem": 516,
      "Ġcomp": 517,
      "ence": 518,
      "Ġhis": 519,
      "ool": 520,
      "ose": 521,
      "Ġalso": 522,
      "ime": 523,
      "Ġ20": 524,
      "ep": 525,
      "Ġso": 526,
      "Ġimp": 527,
      "one": 528,
      "Ġ3": 529,
      "Ġpart": 530,
      "very": 531,
      "Ġ\"": 532,
      "Ġun": 533,
      "ook": 534,
      "ren": 535,
      "Ġcomm": 536,
      "âĢĿ": 537,
      "Ġup": 538,
      "Ġhad": 539,
      "ition": 540,
      "Ġchild": 541,
      "Ġyear": 542,
      "ĠCh": 543,
      "Ġ19": 544,
      "Ġwork": 545,
      "Ġper": 546,
      "Ġpe": 547,
      "ame": 548,
      "Ġev": 549,
      "ress": 550,
      "Ġapp": 551,
      ").": 552,
      "reat": 553,
      "ike": 554,
      "ning": 555,
      "ory": 556,
      "ace": 557,
      "ities": 558,
      "ub": 559,
      "low": 560,
      "Ġqu": 561,
      "ction": 562,
      "ign": 563,
      "chool": 564,
      "Ġthere": 565,
      "ang": 566,
      "now": 567,
      "ric": 568,
      "av": 569,
      "Ġar": 570,
      "ĠK": 571,
      "Ġpre": 572,
      "ĠY": 573,
      "ree": 574,
      "Ġshe": 575,
      "ĠV": 576,
      "ople": 577,
      "Ġstudents": 578,
      "Ġag": 579,
      "ase": 580,
      "ail": 581,
      "Ġgo": 582,
      "ue": 583,
      "ces": 584,
      "nder": 585,
      "Ġwould": 586,
      "Ġbec": 587,
      "ons": 588,
      "Ġtime": 589,
      "ite": 590,
      "ord": 591,
      "ational": 592,
      "Ġwhen": 593,
      "form": 594,
      "iff": 595,
      "te": 596,
      "Ġsome": 597,
      "ond": 598,
      "Ġrec": 599,
      "ts": 600,
      "ens": 601,
      "ram": 602,
      "Ġbeen": 603,
      "ll": 604,
      "Ġpeople": 605,
      "rough": 606,
      "ile": 607,
      "erv": 608,
      "du": 609,
      "ĠâĢľ": 610,
      "ĠĠĠ": 611,
      "ors": 612,
      "Ġover": 613,
      "Ġtra": 614,
      "Ġlike": 615,
      "ĠIt": 616,
      "ays": 617,
      "**": 618,
      "ings": 619,
      "Ġact": 620,
      "velop": 621,
      "ove": 622,
      "ates": 623,
      "Ġ18": 624,
      "Ġour": 625,
      "ov": 626,
      "Ġunder": 627,
      "Ġhow": 628,
      "ks": 629,
      "Ġschool": 630,
      "ian": 631,
      "ough": 632,
      "amp": 633,
      "Ġneed": 634,
      "Ġsa": 635,
      "Ġcol": 636,
      "Ġinto": 637,
      "Ġany": 638,
      "Ġprov": 639,
      "rit": 640,
      "Ġthan": 641,
      "ally": 642,
      "Ġed": 643,
      "Ġsc": 644,
      "irst": 645,
      "Ġno": 646,
      "Ġwhat": 647,
      "Ġmy": 648,
      "Ġ4": 649,
      "Ġro": 650,
      "lic": 651,
      "Ġthese": 652,
      "Ġtw": 653,
      "Ġif": 654,
      "Ġdiff": 655,
      "ause": 656,
      "ĠHe": 657,
      "____": 658,
      "ĠThis": 659,
      "ound": 660,
      "ating": 661,
      "Ġknow": 662,
      "Ġuse": 663,
      "vers": 664,
      "Ġacc": 665,
      "ious": 666,
      "ject": 667,
      "mer": 668,
      "Ġits": 669,
      "Ġrel": 670,
      "lud": 671,
      "Ġcons": 672,
      "we": 673,
      "Ġbet": 674,
      "Ġdes": 675,
      "ph": 676,
      "Ġmay": 677,
      "Ġ-": 678,
      "ng": 679,
      "Ġra": 680,
      "Ġrep": 681,
      "Ġoff": 682,
      "Ġsy": 683,
      "ucation": 684,
      "ink": 685,
      "Ġind": 686,
      "................": 687,
      "ath": 688,
      "ments": 689,
      "ative": 690,
      "Ġnew": 691,
      "Ġlear": 692,
      "Ġdevelop": 693,
      "les": 694,
      "Ġchildren": 695,
      "Ġinter": 696,
      "ific": 697,
      "20": 698,
      "Ġthrough": 699,
      "ĠâĢĵ": 700,
      "oss": 701,
      "wn": 702,
      "round": 703,
      "Ġmany": 704,
      "ĠHol": 705,
      "ism": 706,
      "lect": 707,
      "ied": 708,
      "ife": 709,
      "aust": 710,
      "ob": 711,
      "ted": 712,
      "Ġtr": 713,
      "hed": 714,
      "ne": 715,
      "ract": 716,
      "Ġ201": 717,
      "rop": 718,
      "Ġ5": 719,
      "Ġshould": 720,
      "Ġreg": 721,
      "erm": 722,
      "Ġfirst": 723,
      "fter": 724,
      "Ġyears": 725,
      "lp": 726,
      "olog": 727,
      "Ġmost": 728,
      "Ġam": 729,
      "ocaust": 730,
      "other": 731,
      "Ġac": 732,
      "Ġonly": 733,
      "iet": 734,
      "xt": 735,
      "iss": 736,
      "Ġfe": 737,
      "Ġsuch": 738,
      "ys": 739,
      "red": 740,
      "Ġass": 741,
      "Ġget": 742,
      "ise": 743,
      "Ġinclud": 744,
      "ÂłÂł": 745,
      "ful": 746,
      "Ġhelp": 747,
      "alth": 748,
      "ah": 749,
      "ily": 750,
      "gram": 751,
      "Ġ200": 752,
      "Ġbl": 753,
      "pport": 754,
      "),": 755,
      "Ġeff": 756,
      "sel": 757,
      "stem": 758,
      "Ġtwo": 759,
      "rib": 760,
      "ĠHolocaust": 761,
      "iew": 762,
      "Ġem": 763,
      "----------------": 764,
      "arch": 765,
      "ener": 766,
      "hen": 767,
      "Ġwell": 768,
      "'t": 769,
      "Ġwhere": 770,
      "gan": 771,
      "oin": 772,
      "ade": 773,
      "Ġdisc": 774,
      "ark": 775,
      "Ġcould": 776,
      "Ġdiffere": 777,
      "Ġatt": 778,
      "ility": 779,
      "Ġpol": 780,
      "uring": 781,
      "ĠĠĠĠĠĠĠĠĠĠĠĠĠĠĠĠĠĠĠĠĠĠĠĠĠĠĠĠĠĠĠĠ": 782,
      "omm": 783,
      "Ġexp": 784,
      "Ġadd": 785,
      "ĠShe": 786,
      "eth": 787,
      "oth": 788,
      "ident": 789,
      "roup": 790,
      "Ġused": 791,
      "ular": 792,
      "Ġrem": 793,
      "ting": 794,
      "ered": 795,
      "ss": 796,
      "ural": 797,
      "Ġsoc": 798,
      "ased": 799,
      "Ġsub": 800,
      "get": 801,
      "own": 802,
      "ĠRe": 803,
      "acher": 804,
      "Ġresp": 805,
      "ible": 806,
      "Ġexper": 807,
      "ten": 808,
      "Ġfl": 809,
      "ics": 810,
      "old": 811,
      "Ġob": 812,
      "row": 813,
      "Ġspec": 814,
      "Ġear": 815,
      "ĠWh": 816,
      "Ġcommun": 817,
      "ĠPro": 818,
      "Ġfam": 819,
      "ble": 820,
      "Ġ6": 821,
      "Ġbecause": 822,
      "Ġpres": 823,
      "ict": 824,
      "Ġclass": 825,
      "ures": 826,
      "ream": 827,
      "ower": 828,
      "ĠUn": 829,
      "Ġjust": 830,
      "uch": 831,
      "ness": 832,
      "ick": 833,
      "Ġbu": 834,
      "Ġread": 835,
      "ient": 836,
      "Ġsystem": 837,
      "ters": 838,
      "ution": 839,
      "Ġinst": 840,
      "Ġhim": 841,
      "ween": 842,
      "Ġevery": 843,
      "fore": 844,
      "Ġcount": 845,
      "Ġmake": 846,
      "tain": 847,
      "Ġdec": 848,
      "cy": 849,
      "Ġph": 850,
      "Ġbeing": 851,
      "cess": 852,
      "als": 853,
      "hes": 854,
      "urn": 855,
      "Ġafter": 856,
      "ather": 857,
      "hip": 858,
      "Ġthen": 859,
      "Ġwater": 860,
      "Ġform": 861,
      "led": 862,
      "Ġref": 863,
      "Ġgra": 864,
      "ience": 865,
      "In": 866,
      "Ġ7": 867,
      "Ġhigh": 868,
      "Ġway": 869,
      "Ġinv": 870,
      "Ġprogram": 871,
      "Ġsaid": 872,
      "tern": 873,
      "Ġbetween": 874,
      "ited": 875,
      "oy": 876,
      "Ġsur": 877,
      "yp": 878,
      "cept": 879,
      "Ġcur": 880,
      "ices": 881,
      "its": 882,
      "Ġpartic": 883,
      "Ġimport": 884,
      "ublic": 885,
      "formation": 886,
      "Ġke": 887,
      "ange": 888,
      "Ġloc": 889,
      "ues": 890,
      "ample": 891,
      "ollow": 892,
      "ork": 893,
      "orn": 894,
      "ever": 895,
      "Ġvery": 896,
      "Ġback": 897,
      "up": 898,
      "Ġsee": 899,
      "Ġlife": 900,
      "ft": 901,
      "Ġmem": 902,
      "Ġdifferent": 903,
      "oh": 904,
      "ont": 905,
      "Ġlit": 906,
      "Ġeach": 907,
      "de": 908,
      "ĠYou": 909,
      "Ġincre": 910,
      "Ġthose": 911,
      "Ġset": 912,
      "Ġsec": 913,
      "aw": 914,
      "Ġpers": 915,
      "Ġgood": 916,
      "Ġeducation": 917,
      "19": 918,
      "Ġeven": 919,
      "Ġnum": 920,
      "ature": 921,
      "Ġ10": 922,
      "Ġhist": 923,
      "ives": 924,
      "und": 925,
      "Ġdid": 926,
      "Ġsk": 927,
      "âĢĶ": 928,
      "Ġinf": 929,
      "ement": 930,
      "Ġpr": 931,
      "aking": 932,
      "augh": 933,
      "Ġmade": 934,
      "ĠAn": 935,
      "Th": 936,
      "Ġdoes": 937,
      "ĠSe": 938,
      "ata": 939,
      "ĠWe": 940,
      "Ġgroup": 941,
      "tt": 942,
      "ards": 943,
      "Ġserv": 944,
      "ants": 945,
      "Ġtrans": 946,
      "Ġown": 947,
      "ven": 948,
      "anc": 949,
      "ĠEd": 950,
      "Ġfollow": 951,
      "uss": 952,
      "Ġent": 953,
      "over": 954,
      "ized": 955,
      "Ġagain": 956,
      "ĠAl": 957,
      "Ġsm": 958,
      "Ġprovid": 959,
      "Ġteacher": 960,
      "gy": 961,
      "ix": 962,
      "Ġmuch": 963,
      "air": 964,
      "Ġcar": 965,
      "land": 966,
      "Ġ9": 967,
      "Ġmon": 968,
      "ually": 969,
      "Ġhome": 970,
      "ivers": 971,
      "stand": 972,
      "Ġright": 973,
      "Ġcour": 974,
      "ically": 975,
      "Ġdef": 976,
      "à¥": 977,
      "Ġlong": 978,
      "ĠThey": 979,
      "Ġday": 980,
      "Ġmin": 981,
      "Ġnow": 982,
      "Ġrequ": 983,
      "Ġgu": 984,
      "Ġext": 985,
      "Ġworld": 986,
      "view": 987,
      "any": 988,
      "Ġcall": 989,
      "Ġsupport": 990,
      "Ġlearning": 991,
      "Ġrese": 992,
      "Ġgener": 993,
      "Ġprocess": 994,
      "ved": 995,
      "Ġ8": 996,
      "uth": 997,
      "ines": 998,
      "Ġthink": 999,
      "Ġlook": 1000,
      "Ġhealth": 1001,
      "iel": 1002,
      "Ġà¤": 1003,
      "imes": 1004,
      "ĠSp": 1005,
      "Ġmod": 1006,
      "arent": 1007,
      "vent": 1008,
      "Ġins": 1009,
      "Ġlar": 1010,
      "ince": 1011,
      "Ġmed": 1012,
      "ef": 1013,
      "der": 1014,
      "Ġstr": 1015,
      "Ġwom": 1016,
      "Ġorgan": 1017,
      "Ġdep": 1018,
      "Ġart": 1019,
      "ĠJew": 1020,
      "iety": 1021,
      "the": 1022,
      "Ġhum": 1023,
      "ĠAs": 1024,
      "iron": 1025,
      "duct": 1026,
      "Ġaw": 1027,
      ".\"": 1028,
      "ĊĠ": 1029,
      "Ġbel": 1030,
      "ien": 1031,
      "oun": 1032,
      "Ġtake": 1033,
      "Ġdet": 1034,
      "Ġeffect": 1035,
      "Ġinformation": 1036,
      "Ġquest": 1037,
      "Ġthree": 1038,
      "Ġboth": 1039,
      "Ġshow": 1040,
      "tle": 1041,
      "ww": 1042,
      "Ġchar": 1043,
      "Ġimportant": 1044,
      "ax": 1045,
      "meric": 1046,
      "Ġexample": 1047,
      "Ġlevel": 1048,
      "Ġduring": 1049,
      "ĠĠĠĠĠĠĠĠĠĠĠĠ": 1050,
      "Ġend": 1051,
      ".,": 1052,
      "Ġsame": 1053,
      "Ġav": 1054,
      "Ġwant": 1055,
      "Ġ0": 1056,
      "inc": 1057,
      "ages": 1058,
      "ĠHow": 1059,
      "Ġresult": 1060,
      "Ġpract": 1061,
      "ving": 1062,
      "ock": 1063,
      "________": 1064,
      "ars": 1065,
      "Ġconc": 1066,
      "Ġbo": 1067,
      "akes": 1068,
      "Ġfind": 1069,
      "ĠSh": 1070,
      "Ġval": 1071,
      "ruct": 1072,
      "ĠâĢĺ": 1073,
      "Ġexpl": 1074,
      "Wh": 1075,
      "Ġgreat": 1076,
      "chn": 1077,
      "Ġop": 1078,
      "ize": 1079,
      "self": 1080,
      "ield": 1081,
      "ty": 1082,
      "ĠIf": 1083,
      "Ġmain": 1084,
      "Ġwhile": 1085,
      "ern": 1086,
      "gg": 1087,
      "ody": 1088,
      "Ġconf": 1089,
      "rol": 1090,
      "ital": 1091,
      "Ġvar": 1092,
      "blem": 1093,
      "Ġcre": 1094,
      "Ġbefore": 1095,
      "onom": 1096,
      "Ġsim": 1097,
      "Ġfound": 1098,
      "Ġhand": 1099,
      "Ġhom": 1100,
      "Ġdata": 1101,
      "Ġcent": 1102,
      "Ġdown": 1103,
      "omp": 1104,
      "ĠAmeric": 1105,
      "urch": 1106,
      "ĠFor": 1107,
      "Ġstream": 1108,
      "iving": 1109,
      "ier": 1110,
      "Ġsign": 1111,
      "ner": 1112,
      "âĢĵ": 1113,
      "Ġplay": 1114,
      "Ġunderstand": 1115,
      "alk": 1116,
      "Ġ12": 1117,
      "Ġstudy": 1118,
      "ists": 1119,
      "day": 1120,
      "Ġpos": 1121,
      "Ġ*": 1122,
      "read": 1123,
      "Ġbook": 1124,
      "Ġcare": 1125,
      "ection": 1126,
      "Ġperson": 1127,
      "Ġ&": 1128,
      "ried": 1129,
      "Ġfamily": 1130,
      "Ġvis": 1131,
      "ck": 1132,
      "ves": 1133,
      "Ġiss": 1134,
      "Ġlead": 1135,
      "Ġsom": 1136,
      "ĠNew": 1137,
      "Ġactiv": 1138,
      "Ġfact": 1139,
      "Ġplace": 1140,
      "ining": 1141,
      "Ġposs": 1142,
      "viron": 1143,
      "irect": 1144,
      "ins": 1145,
      "Ġbr": 1146,
      "ality": 1147,
      "bers": 1148,
      "man": 1149,
      "ouse": 1150,
      "ank": 1151,
      "Ġthough": 1152,
      "ĠAnd": 1153,
      "io": 1154,
      "Ġproblem": 1155,
      "Ġaround": 1156,
      "Ġdevelopment": 1157,
      "nce": 1158,
      "Ġdist": 1159,
      "ared": 1160,
      "duc": 1161,
      "Ġpower": 1162,
      "ĠTe": 1163,
      "ave": 1164,
      "Ġappro": 1165,
      "ivid": 1166,
      "ĠDe": 1167,
      "aj": 1168,
      "Ġbuild": 1169,
      "Ġdon": 1170,
      "Ġcult": 1171,
      "rent": 1172,
      "ĠComm": 1173,
      "Ġpublic": 1174,
      "ology": 1175,
      "Ġret": 1176,
      "Ġconsid": 1177,
      "arm": 1178,
      "me": 1179,
      "201": 1180,
      "Ġplan": 1181,
      "az": 1182,
      "Ġwrit": 1183,
      "atch": 1184,
      "ute": 1185,
      "Ġreport": 1186,
      "ional": 1187,
      "II": 1188,
      "Ġpoin": 1189,
      "Ġcomple": 1190,
      "eng": 1191,
      "Ġfood": 1192,
      "Ġant": 1193,
      "................................": 1194,
      "Ġnumber": 1195,
      "erest": 1196,
      "ced": 1197,
      "ĠAr": 1198,
      "Ġser": 1199,
      "Ġstart": 1200,
      "Ġsol": 1201,
      "Ġwithin": 1202,
      "Ġest": 1203,
      "Ġoften": 1204,
      "Ġocc": 1205,
      "Ġco": 1206,
      "ĠLe": 1207,
      "000": 1208,
      "Ġusing": 1209,
      "ross": 1210,
      "Ġgl": 1211,
      "Ø§": 1212,
      "Ġless": 1213,
      "Ġbelie": 1214,
      "10": 1215,
      "Ġland": 1216,
      "ases": 1217,
      "ull": 1218,
      "Ġcle": 1219,
      "Ġfin": 1220,
      "Ġmust": 1221,
      "ources": 1222,
      "ral": 1223,
      "Ġstill": 1224,
      "ĠInd": 1225,
      "angu": 1226,
      "Ġsocial": 1227,
      "vironment": 1228,
      "Ġlearn": 1229,
      "Ġadv": 1230,
      "ering": 1231,
      "eless": 1232,
      "Ġearly": 1233,
      "alt": 1234,
      "Ġcontin": 1235,
      "Ġide": 1236,
      "...": 1237,
      "Ġproject": 1238,
      "ĠThere": 1239,
      "Ġresearch": 1240,
      "pr": 1241,
      "Ġold": 1242,
      "Ġstudent": 1243,
      "ense": 1244,
      "Ġallow": 1245,
      "ined": 1246,
      "Ġcolle": 1247,
      "Ġhistory": 1248,
      "Ġpop": 1249,
      ".âĢĿ": 1250,
      "rs": 1251,
      "ets": 1252,
      "Ġ'": 1253,
      "ĠSc": 1254,
      "ected": 1255,
      "Ġtyp": 1256,
      "Ġbest": 1257,
      "Ġdi": 1258,
      "Ġlist": 1259,
      "Ġtechn": 1260,
      "Ġfeel": 1261,
      "ished": 1262,
      "ĠBut": 1263,
      "ries": 1264,
      "ired": 1265,
      "-|": 1266,
      "Ġsit": 1267,
      "itive": 1268,
      "ised": 1269,
      "ister": 1270,
      "Ġparent": 1271,
      "Ġgover": 1272,
      "Ġtest": 1273,
      "Ġche": 1274,
      "aching": 1275,
      "Ġpri": 1276,
      "Ġinterest": 1277,
      "com": 1278,
      "Ġmar": 1279,
      "Ġmov": 1280,
      "ton": 1281,
      "ason": 1282,
      "Ġec": 1283,
      "ĠAd": 1284,
      "Ġprovide": 1285,
      "Ġsecond": 1286,
      "Ġtop": 1287,
      "ĠCon": 1288,
      "ially": 1289,
      "Ġincluding": 1290,
      "ills": 1291,
      "ÂłÂłÂłÂł": 1292,
      "ER": 1293,
      "ĠPl": 1294,
      "ĠIs": 1295,
      "Ġgovern": 1296,
      "Ġdesc": 1297,
      "iversity": 1298,
      "Ġca": 1299,
      "Ġcho": 1300,
      "ĠâĢ¢": 1301,
      "This": 1302,
      "itions": 1303,
      "ohn": 1304,
      "Ġmight": 1305,
      "ash": 1306,
      "Ġprot": 1307,
      "Ġstate": 1308,
      "acter": 1309,
      "Ġfun": 1310,
      "ĠEu": 1311,
      "Ġpresent": 1312,
      "iven": 1313,
      "ways": 1314,
      "Ġsmall": 1315,
      "Ġcr": 1316,
      "eg": 1317,
      "Ġask": 1318,
      "Ġsay": 1319,
      "Ġcap": 1320,
      "ocus": 1321,
      "Ġword": 1322,
      "rist": 1323,
      "Ġident": 1324,
      "Ġ15": 1325,
      "Ġdem": 1326,
      "ley": 1327,
      "Ġequ": 1328,
      "ript": 1329,
      "Ġmother": 1330,
      "ged": 1331,
      "Ġgrow": 1332,
      "ĊĊĠĠĠ": 1333,
      "ither": 1334,
      "ĠTo": 1335,
      "22": 1336,
      "Ġ$": 1337,
      "Ġstand": 1338,
      "ĠCl": 1339,
      "Ġlocal": 1340,
      "Ġlarge": 1341,
      "ple": 1342,
      "ann": 1343,
      "ote": 1344,
      "Ġdiscuss": 1345,
      "Ġaff": 1346,
      "ale": 1347,
      "Ġ11": 1348,
      "ately": 1349,
      "ived": 1350,
      "rope": 1351,
      "Ġopen": 1352,
      "Ġhuman": 1353,
      "ĠCount": 1354,
      "erc": 1355,
      "Ġfew": 1356,
      "sc": 1357,
      "ĠRes": 1358,
      "Ġwithout": 1359,
      "ĠGod": 1360,
      "ccess": 1361,
      "Ġyoung": 1362,
      "Ġprom": 1363,
      "Ġterm": 1364,
      "Ġunt": 1365,
      "ission": 1366,
      "Ġrespons": 1367,
      "sp": 1368,
      "lish": 1369,
      "Ġpat": 1370,
      "Ġlast": 1371,
      "ex": 1372,
      "raph": 1373,
      "Ġcommunity": 1374,
      "less": 1375,
      "ĠStud": 1376,
      "ĠCol": 1377,
      "Ġpass": 1378,
      "agement": 1379,
      "anguage": 1380,
      "//": 1381,
      "Ġwomen": 1382,
      "ON": 1383,
      "iqu": 1384,
      "oci": 1385,
      "oon": 1386,
      "Ġdesign": 1387,
      "Ġspe": 1388,
      "Ġfour": 1389,
      "ified": 1390,
      "ividual": 1391,
      "Ġthings": 1392,
      "Ġorder": 1393,
      "Ġchang": 1394,
      "Ġcontrol": 1395,
      "ling": 1396,
      "Ġbeh": 1397,
      "ĠThese": 1398,
      "osp": 1399,
      "Ġagainst": 1400,
      "Ġcor": 1401,
      "Ġtoo": 1402,
      "Ġmove": 1403,
      "Ġhapp": 1404,
      "ource": 1405,
      "ĠQ": 1406,
      "ĠEducation": 1407,
      "uthor": 1408,
      "ination": 1409,
      "lement": 1410,
      "use": 1411,
      "ik": 1412,
      "ision": 1413,
      "atter": 1414,
      "ttp": 1415,
      "Ġenvironment": 1416,
      "Ġfocus": 1417,
      "ended": 1418,
      "Ġet": 1419,
      "ention": 1420,
      "ĠCity": 1421,
      "Ġparticip": 1422,
      "ĠEurope": 1423,
      "Ġgoing": 1424,
      "oor": 1425,
      "ug": 1426,
      "Ġreal": 1427,
      "room": 1428,
      "Ġimpro": 1429,
      "Ġcalled": 1430,
      "line": 1431,
      "Ġbetter": 1432,
      "Ġavail": 1433,
      "://": 1434,
      "Ġeas": 1435,
      "Ġsl": 1436,
      "ising": 1437,
      "Ġconst": 1438,
      "osed": 1439,
      "Ġprof": 1440,
      "ains": 1441,
      "here": 1442,
      "ories": 1443,
      "Ġ16": 1444,
      "Ġareas": 1445,
      "Ġkeep": 1446,
      "Ġenc": 1447,
      "bs": 1448,
      "Ġdirect": 1449,
      "Ġrun": 1450,
      "ember": 1451,
      "Ġ199": 1452,
      "riend": 1453,
      "Ġindividual": 1454,
      "iod": 1455,
      "Ġmater": 1456,
      "Ġanother": 1457,
      "Ġarea": 1458,
      "ertain": 1459,
      "els": 1460,
      "ĠCounty": 1461,
      "Ġbro": 1462,
      "ify": 1463,
      "Ġexperience": 1464,
      "It": 1465,
      "ĠSoc": 1466,
      "ret": 1467,
      "Ġeng": 1468,
      "ajor": 1469,
      "Ġsince": 1470,
      "Ġstat": 1471,
      "Ġve": 1472,
      "ergy": 1473,
      "Ġ14": 1474,
      "ĠEng": 1475,
      "Ġbas": 1476,
      "Ġbody": 1477,
      "ĠMin": 1478,
      "ization": 1479,
      "Ġaddition": 1480,
      "ĠJewish": 1481,
      "Ġuntil": 1482,
      "idd": 1483,
      "Ġ17": 1484,
      "ulation": 1485,
      "orth": 1486,
      "Ġben": 1487,
      "Ġcome": 1488,
      "ethod": 1489,
      "Ġliter": 1490,
      "Ġsupp": 1491,
      "ium": 1492,
      "ething": 1493,
      "Ġcurrent": 1494,
      "ert": 1495,
      "ĠEx": 1496,
      "Ġleg": 1497,
      "Ġhere": 1498,
      "rat": 1499,
      "ration": 1500,
      "IN": 1501,
      "dition": 1502,
      "Ġborn": 1503,
      "sh": 1504,
      "Ġ[": 1505,
      "ek": 1506,
      "ĠĠĠĠĠ": 1507,
      "Ġrest": 1508,
      "ior": 1509,
      "AR": 1510,
      "aper": 1511,
      "ĠZ": 1512,
      "iness": 1513,
      "resent": 1514,
      "sw": 1515,
      "ĠJohn": 1516,
      "ogn": 1517,
      "Ġanti": 1518,
      "abor": 1519,
      "Ġleft": 1520,
      "Ġmonth": 1521,
      "Ġpossible": 1522,
      "vert": 1523,
      "Ġcommon": 1524,
      "ians": 1525,
      "ron": 1526,
      "Ġeduc": 1527,
      "AT": 1528,
      "app": 1529,
      "esp": 1530,
      "Ġchange": 1531,
      "ĠWhat": 1532,
      "ger": 1533,
      "Ġcreat": 1534,
      "ability": 1535,
      "Ġschools": 1536,
      "urs": 1537,
      "--------------------------------": 1538,
      "Ġflow": 1539,
      "Ġnon": 1540,
      "Ġlittle": 1541,
      "cent": 1542,
      "Ġmen": 1543,
      "ĠWhen": 1544,
      "ledge": 1545,
      "ott": 1546,
      "Ġ25": 1547,
      "Ġavailable": 1548,
      "Ġlot": 1549,
      "ames": 1550,
      "Ġalways": 1551,
      "ĠUt": 1552,
      "Ġcountry": 1553,
      "Ġfac": 1554,
      "ently": 1555,
      "Ġreally": 1556,
      "ope": 1557,
      "Ġable": 1558,
      "ograph": 1559,
      "rain": 1560,
      "iver": 1561,
      "Ġgre": 1562,
      "Ġvol": 1563,
      "Ġenergy": 1564,
      "ES": 1565,
      "par": 1566,
      "Ġfield": 1567,
      "ilities": 1568,
      "aken": 1569,
      "Ġparticular": 1570,
      "Ġer": 1571,
      "duction": 1572,
      "Ġmus": 1573,
      "Ġdays": 1574,
      "Ġsever": 1575,
      "ray": 1576,
      "thing": 1577,
      "30": 1578,
      "âĢľ": 1579,
      "to": 1580,
      "oura": 1581,
      "Ġhead": 1582,
      "Ġgen": 1583,
      "Ġproper": 1584,
      "Ġquestion": 1585,
      "Ġsomething": 1586,
      "Ġput": 1587,
      "unity": 1588,
      "Ġmajor": 1589,
      "icy": 1590,
      "Ġlight": 1591,
      "Ġsuccess": 1592,
      "br": 1593,
      "Ġpolit": 1594,
      "Ġsubject": 1595,
      "What": 1596,
      "cle": 1597,
      "Ġcrit": 1598,
      "outh": 1599,
      "Ġdel": 1600,
      "uck": 1601,
      "ward": 1602,
      "Ġmeet": 1603,
      "Ġteachers": 1604,
      "ĠAll": 1605,
      "duce": 1606,
      "Ġparents": 1607,
      "emit": 1608,
      "Ġnever": 1609,
      "Ġeconom": 1610,
      "Ġmeans": 1611,
      "Ġfollowing": 1612,
      "Ġseveral": 1613,
      "ĠChrist": 1614,
      "mit": 1615,
      "ĠHowever": 1616,
      "Ġactivities": 1617,
      "Ġage": 1618,
      "Ġpar": 1619,
      "ĠSo": 1620,
      "Ġbecome": 1621,
      "Ġauthor": 1622,
      "isc": 1623,
      "Ġmethod": 1624,
      "ential": 1625,
      "ĠLake": 1626,
      "---|": 1627,
      "Ġneeds": 1628,
      "200": 1629,
      "AN": 1630,
      "Ġel": 1631,
      "Ġperiod": 1632,
      "Ġmark": 1633,
      "Ġbre": 1634,
      "Ġmaterial": 1635,
      "Ġrece": 1636,
      "ĠCent": 1637,
      "lu": 1638,
      "Ġ30": 1639,
      "St": 1640,
      "Ġtimes": 1641,
      "Ġeither": 1642,
      "Ġreading": 1643,
      "ury": 1644,
      "Ġens": 1645,
      "ateg": 1646,
      "Ġelect": 1647,
      "Ġris": 1648,
      "Ġtre": 1649,
      "Ġgive": 1650,
      "aughter": 1651,
      "12": 1652,
      "Ġill": 1653,
      "Ġdri": 1654,
      "ead": 1655,
      "Ġwar": 1656,
      "Ġpost": 1657,
      "ĠAt": 1658,
      "ĠNational": 1659,
      "port": 1660,
      "Ġfree": 1661,
      "ĠII": 1662,
      "elf": 1663,
      "Ġpoint": 1664,
      "Ġgiven": 1665,
      "ording": 1666,
      "Ġhomeless": 1667,
      "Ġgovernment": 1668,
      "ĠUtah": 1669,
      "org": 1670,
      "ĠPol": 1671,
      "Ġmean": 1672,
      "Ġothers": 1673,
      "Ġperform": 1674,
      "Ġamong": 1675,
      "Ġissues": 1676,
      "por": 1677,
      "atural": 1678,
      "Ġcost": 1679,
      "ina": 1680,
      "Ġhard": 1681,
      "Ġlet": 1682,
      "Ġinvol": 1683,
      "ny": 1684,
      "Ġbased": 1685,
      "ably": 1686,
      "Ġliving": 1687,
      "urther": 1688,
      "Ġconn": 1689,
      "Ġturn": 1690,
      "Ġname": 1691,
      "uture": 1692,
      "Ġmeas": 1693,
      "'re": 1694,
      "ĠSu": 1695,
      "acy": 1696,
      "be": 1697,
      "Ġtry": 1698,
      "int": 1699,
      "Ġcase": 1700,
      "ĠAf": 1701,
      "Ġproduct": 1702,
      "ĠStates": 1703,
      "Ġgroups": 1704,
      "Semit": 1705,
      "Ġmet": 1706,
      "Ġteam": 1707,
      "Ġtem": 1708,
      "ilar": 1709,
      "idence": 1710,
      "Ġcharacter": 1711,
      "We": 1712,
      "Ġview": 1713,
      "pect": 1714,
      "Ġlaw": 1715,
      "igure": 1716,
      "ring": 1717,
      "ours": 1718,
      "ee": 1719,
      "Ġfriend": 1720,
      "Ġtalk": 1721,
      "Ġbus": 1722,
      "Ġdra": 1723,
      "ĠWor": 1724,
      "Ġdev": 1725,
      "ĠThat": 1726,
      "Ġ.": 1727,
      "Ġpress": 1728,
      "olution": 1729,
      "Ġ13": 1730,
      "Ġanal": 1731,
      "ĠFr": 1732,
      "artment": 1733,
      "Ġimm": 1734,
      "Ġprovided": 1735,
      "oot": 1736,
      "ators": 1737,
      "Ġfore": 1738,
      "ird": 1739,
      "inal": 1740,
      "ĠSalt": 1741,
      "oney": 1742,
      "oid": 1743,
      "pro": 1744,
      "rap": 1745,
      "âĢ¢": 1746,
      "Ġseem": 1747,
      "Ġlim": 1748,
      "Ġdeath": 1749,
      "aff": 1750,
      "cil": 1751,
      "vious": 1752,
      "ological": 1753,
      ",âĢĿ": 1754,
      "50": 1755,
      "Ġmaking": 1756,
      "Ġnear": 1757,
      "Ġcollege": 1758,
      "nal": 1759,
      "Ġsw": 1760,
      "Ġcy": 1761,
      "Ġexperien": 1762,
      "Ġaway": 1763,
      "Ġchall": 1764,
      "Ġsignific": 1765,
      "Ġreturn": 1766,
      "Ġlow": 1767,
      "ode": 1768,
      "Ġpict": 1769,
      "Ġfund": 1770,
      "Ġaccess": 1771,
      "ĠUniversity": 1772,
      "ler": 1773,
      "of": 1774,
      "Ġheart": 1775,
      "Ġhaving": 1776,
      "ĠUnited": 1777,
      "ipp": 1778,
      "Ġrele": 1779,
      "selves": 1780,
      "rig": 1781,
      "Ġoper": 1782,
      "ilit": 1783,
      "Ġtext": 1784,
      "Ġclear": 1785,
      "min": 1786,
      "ster": 1787,
      "ims": 1788,
      "Ġsaf": 1789,
      "ency": 1790,
      "Ġinclude": 1791,
      "ĊĠĠĠ": 1792,
      "agn": 1793,
      "ĠBe": 1794,
      "ĠâĢĶ": 1795,
      "ĠOn": 1796,
      "Ġbenef": 1797,
      "side": 1798,
      "Ġopport": 1799,
      "Ġtoget": 1800,
      "icult": 1801,
      "Ġtogether": 1802,
      "lor": 1803,
      "ances": 1804,
      "ĠMan": 1805,
      "Ġexam": 1806,
      "Ġdescrib": 1807,
      "Ġnational": 1808,
      "ĠAss": 1809,
      "une": 1810,
      "ĠUS": 1811,
      "ruction": 1812,
      "rict": 1813,
      "Ġmembers": 1814,
      "Ġwhy": 1815,
      "Ġacross": 1816,
      "ĠAmerican": 1817,
      "mber": 1818,
      "ĠØ": 1819,
      "Ġdr": 1820,
      "Ġbeg": 1821,
      "orts": 1822,
      "Ġblood": 1823,
      "Ch": 1824,
      "itor": 1825,
      "Ġhttp": 1826,
      "ĠOne": 1827,
      "Ġnext": 1828,
      "erence": 1829,
      "Ġincrease": 1830,
      "illion": 1831,
      "Ġsuff": 1832,
      "ĠJan": 1833,
      "ecess": 1834,
      "aps": 1835,
      "Ġknown": 1836,
      "Ġair": 1837,
      "Ġsing": 1838,
      "ET": 1839,
      "Ġpot": 1840,
      "Ġstruct": 1841,
      "Ġkey": 1842,
      "uation": 1843,
      "Ġbelow": 1844,
      "OR": 1845,
      "icle": 1846,
      "Ġlanguage": 1847,
      "Ġexist": 1848,
      "Ġknowledge": 1849,
      "most": 1850,
      "Ġtreat": 1851,
      "Ġspecific": 1852,
      "utions": 1853,
      "Ġfuture": 1854,
      "Ġdue": 1855,
      "chie": 1856,
      "Ġspace": 1857,
      "ained": 1858,
      "ending": 1859,
      "Ġtraining": 1860,
      "Ġroom": 1861,
      "Ġcourse": 1862,
      "Ġspecial": 1863,
      "Ġcountries": 1864,
      "ĠAfric": 1865,
      "ats": 1866,
      "Ġskills": 1867,
      "Ġservices": 1868,
      "not": 1869,
      "Ġfish": 1870,
      "though": 1871,
      "ĠRep": 1872,
      "Ġrelations": 1873,
      "Ġrole": 1874,
      "Ġwriting": 1875,
      "lished": 1876,
      "Ġopt": 1877,
      "ental": 1878,
      "ison": 1879,
      "ĠPh": 1880,
      "ĠEn": 1881,
      "Ġrelig": 1882,
      "Ġpur": 1883,
      "Ġfre": 1884,
      "ĠMar": 1885,
      "ively": 1886,
      "Ġconsider": 1887,
      "Ġaccount": 1888,
      "ĠCan": 1889,
      "ivity": 1890,
      "Ġteaching": 1891,
      "Ġlater": 1892,
      "ĠIm": 1893,
      "ored": 1894,
      "Ġcaus": 1895,
      "11": 1896,
      "iti": 1897,
      "utes": 1898,
      "ĠComp": 1899,
      "Ġworking": 1900,
      "Ġfamil": 1901,
      "work": 1902,
      "Ġdam": 1903,
      "Ġhig": 1904,
      "Ġhouse": 1905,
      "Ġplac": 1906,
      "Ġkind": 1907,
      "cl": 1908,
      "Ġcir": 1909,
      "Ġlove": 1910,
      "Ġdise": 1911,
      "Ġaddress": 1912,
      "www": 1913,
      "Ġreason": 1914,
      "ĠHer": 1915,
      "Ġquestions": 1916,
      ",\"": 1917,
      "duced": 1918,
      "Ġside": 1919,
      "Ġcertain": 1920,
      "ump": 1921,
      "ibr": 1922,
      "Ġlikely": 1923,
      "Ġvarious": 1924,
      "Ġtell": 1925,
      "Ġsum": 1926,
      "ued": 1927,
      "ustom": 1928,
      "Ġdifficult": 1929,
      "Ġwr": 1930,
      "ibility": 1931,
      "for": 1932,
      "incip": 1933,
      "ION": 1934,
      "Ġri": 1935,
      "Ġtook": 1936,
      "ĠSchool": 1937,
      "ĠPr": 1938,
      "Ġcomb": 1939,
      "Ġleast": 1940,
      "iam": 1941,
      "ication": 1942,
      "irl": 1943,
      "AL": 1944,
      "xts": 1945,
      "ĠSm": 1946,
      "Ġestab": 1947,
      "Ġlive": 1948,
      "wards": 1949,
      "Ġsignificant": 1950,
      "stit": 1951,
      "Ġresources": 1952,
      "ĠHealth": 1953,
      "21": 1954,
      "Ġphys": 1955,
      "________________": 1956,
      "Ġcreate": 1957,
      "ires": 1958,
      "Ġtaken": 1959,
      "ator": 1960,
      "Ġcame": 1961,
      "arr": 1962,
      "Ġgr": 1963,
      "Ġproblems": 1964,
      "Ġabove": 1965,
      "Ġrecogn": 1966,
      "Ġsociety": 1967,
      "Ġfull": 1968,
      "Ġmoney": 1969,
      "ĠBl": 1970,
      "Ġmanagement": 1971,
      "Ġimpact": 1972,
      "ione": 1973,
      "ids": 1974,
      "ĠDo": 1975,
      "ggest": 1976,
      "ĠWorld": 1977,
      "ext": 1978,
      "Ġansw": 1979,
      "ploy": 1980,
      "Ġstory": 1981,
      "gress": 1982,
      "oad": 1983,
      "Ġbig": 1984,
      "Ġenough": 1985,
      "by": 1986,
      "eb": 1987,
      "ĠÙ": 1988,
      "Ġaut": 1989,
      "Ġpaper": 1990,
      "aster": 1991,
      "ober": 1992,
      "ief": 1993,
      "ready": 1994,
      "ape": 1995,
      "Ġinvest": 1996,
      "Ġcomplete": 1997,
      "Ġimprove": 1998,
      "alf": 1999,
      "iles": 2000,
      "âĢ¦": 2001,
      "Ġstates": 2002,
      "Ġsure": 2003,
      "ĠGerm": 2004,
      "Ġhistor": 2005,
      "As": 2006,
      "EN": 2007,
      "Ġfurther": 2008,
      "ured": 2009,
      "Ġrepresent": 2010,
      "ges": 2011,
      "Ġpay": 2012,
      "Ġmult": 2013,
      "Ġnecess": 2014,
      "imate": 2015,
      "Ġanim": 2016,
      "Ġprop": 2017,
      "Ġrecord": 2018,
      "ropri": 2019,
      "If": 2020,
      "Ġ**": 2021,
      "hem": 2022,
      "Ġsix": 2023,
      "Ġfr": 2024,
      "ouncil": 2025,
      "Ġpolitical": 2026,
      "face": 2027,
      "Ġachie": 2028,
      "Ġways": 2029,
      "Ġgif": 2030,
      "ides": 2031,
      "ĠMrs": 2032,
      "ĠOr": 2033,
      "Ġoffic": 2034,
      "Ġamount": 2035,
      "Ġobs": 2036,
      "Ġwords": 2037,
      "asing": 2038,
      "Ġnatural": 2039,
      "ung": 2040,
      "ples": 2041,
      "iddle": 2042,
      "iting": 2043,
      "Ġfive": 2044,
      "Ġconsum": 2045,
      "cher": 2046,
      "ĠĠĠĠĠĠĠ": 2047,
      "ĠWar": 2048,
      "Ġshort": 2049,
      "Ġclassroom": 2050,
      "ane": 2051,
      "Ġdone": 2052,
      "ĠJews": 2053,
      "ening": 2054,
      "ricul": 2055,
      "Ġprevent": 2056,
      "orial": 2057,
      "elt": 2058,
      "Ġalready": 2059,
      "Ġinflu": 2060,
      "Ġencoura": 2061,
      "Ġrisk": 2062,
      "yn": 2063,
      "atic": 2064,
      "Ġthemselves": 2065,
      "Ġsystems": 2066,
      "Ġdeterm": 2067,
      "apt": 2068,
      "Ġresults": 2069,
      "Ġbi": 2070,
      "Ġalong": 2071,
      "ements": 2072,
      "Ġindust": 2073,
      "18": 2074,
      "Ġcity": 2075,
      "Ġdaughter": 2076,
      "Ġsuggest": 2077,
      "Ġbooks": 2078,
      "15": 2079,
      "You": 2080,
      "Ġever": 2081,
      "Ġpractice": 2082,
      "Semitism": 2083,
      "Ġcause": 2084,
      "Ġtoday": 2085,
      "let": 2086,
      "ĠĠĠĠĠĠ": 2087,
      "illed": 2088,
      "ĠWith": 2089,
      "ney": 2090,
      "Ġflood": 2091,
      "AC": 2092,
      "val": 2093,
      "Ġtru": 2094,
      "Ġann": 2095,
      "ĊĊĠ": 2096,
      "hing": 2097,
      "Ġtax": 2098,
      "Ġmot": 2099,
      "ĠBy": 2100,
      "earch": 2101,
      "Ġpriv": 2102,
      "ask": 2103,
      "ĠNo": 2104,
      "rug": 2105,
      "How": 2106,
      "Ġtri": 2107,
      "ĠMay": 2108,
      "ultural": 2109,
      "Ġhowever": 2110,
      "Ġpositive": 2111,
      ":âĢĶ": 2112,
      "den": 2113,
      "ole": 2114,
      "Ġnut": 2115,
      "ĠEar": 2116,
      "ĠChurch": 2117,
      "Ġunderstanding": 2118,
      "Ġthought": 2119,
      "Ġur": 2120,
      "ony": 2121,
      "ĠĠĠĠĠĠĠĠĠ": 2122,
      "ully": 2123,
      "Ġwhole": 2124,
      "af": 2125,
      "ients": 2126,
      "str": 2127,
      "Ġground": 2128,
      "Ġneg": 2129,
      "Ġbusiness": 2130,
      "istry": 2131,
      "Ġseen": 2132,
      "Ġess": 2133,
      "unities": 2134,
      "ĠChar": 2135,
      "Ġbecame": 2136,
      "Ġculture": 2137,
      "ches": 2138,
      "Ġprim": 2139,
      "Ġpain": 2140,
      "Ġcond": 2141,
      "Ġsomeone": 2142,
      "uter": 2143,
      "ox": 2144,
      "arget": 2145,
      "ots": 2146,
      "ument": 2147,
      "Ġmakes": 2148,
      "Ġhous": 2149,
      "ils": 2150,
      "Ġonce": 2151,
      "Ġdeveloped": 2152,
      "Ġassist": 2153,
      "Ġassoci": 2154,
      "att": 2155,
      "ership": 2156,
      "'m": 2157,
      "new": 2158,
      "Ġ=": 2159,
      "reg": 2160,
      "ecially": 2161,
      "Ġincreased": 2162,
      "'ve": 2163,
      "Ġself": 2164,
      "amm": 2165,
      "ĠState": 2166,
      "Ġstrong": 2167,
      "Ġrelationship": 2168,
      "na": 2169,
      "ÙĦ": 2170,
      "Ġter": 2171,
      "atory": 2172,
      "ĠRoss": 2173,
      "Ġgot": 2174,
      "ĠAct": 2175,
      "Ġcollect": 2176,
      "Ġdetail": 2177,
      "Ġmarried": 2178,
      ".)": 2179,
      "IS": 2180,
      "NA": 2181,
      "eed": 2182,
      "ii": 2183,
      "Ġpast": 2184,
      "ilt": 2185,
      "aily": 2186,
      "Ġpolicy": 2187,
      "Ġwoman": 2188,
      "ĠQu": 2189,
      "Ġsense": 2190,
      "Ġfar": 2191,
      "Ġrange": 2192,
      "Ġcommunities": 2193,
      "Ġprovides": 2194,
      "Ġpicture": 2195,
      "Ġcirc": 2196,
      "het": 2197,
      "ildren": 2198,
      "Ġassess": 2199,
      "Ġinstit": 2200,
      "Ġapproach": 2201,
      "Ġmoved": 2202,
      "Ġbehav": 2203,
      "An": 2204,
      "Ġ24": 2205,
      "Ġrecomm": 2206,
      "Ġservice": 2207,
      "Ġensure": 2208,
      "Ġir": 2209,
      "useum": 2210,
      "CE": 2211,
      "Ġthing": 2212,
      "ĠHis": 2213,
      "aught": 2214,
      "iol": 2215,
      "isher": 2216,
      "Ġmind": 2217,
      "obal": 2218,
      "Ġposition": 2219,
      "ĠWill": 2220,
      "especially": 2221,
      "ĠPres": 2222,
      "Ġevent": 2223,
      "Ġrequire": 2224,
      "Ġasked": 2225,
      "icated": 2226,
      "Ġcommit": 2227,
      "ĠYork": 2228,
      "Ġbegin": 2229,
      "99": 2230,
      "Ġtot": 2231,
      "Ġele": 2232,
      "Ġheat": 2233,
      "Ġbuilding": 2234,
      "Ġchanges": 2235,
      "Ġeducational": 2236,
      "yd": 2237,
      "ĠApr": 2238,
      "Ġrather": 2239,
      "Ġ23": 2240,
      "Ġappropri": 2241,
      "Ġmaintain": 2242,
      "mb": 2243,
      "ĠPer": 2244,
      "hood": 2245,
      "Ġchurch": 2246,
      "ights": 2247,
      "aged": 2248,
      "Ġcontrib": 2249,
      "Ġgeneral": 2250,
      "Ġpoor": 2251,
      "Ġey": 2252,
      "Ġclose": 2253,
      "Ġconcern": 2254,
      "Te": 2255,
      "fer": 2256,
      "eder": 2257,
      "Ġfail": 2258,
      "ĠTr": 2259,
      "Ġintern": 2260,
      "Ġrequired": 2261,
      "Ġetc": 2262,
      "Ġcal": 2263,
      "Ġfall": 2264,
      "Ġability": 2265,
      "à¤¾": 2266,
      "Ġcoll": 2267,
      "Ġlevels": 2268,
      "oard": 2269,
      "atures": 2270,
      "ened": 2271,
      "esc": 2272,
      "ĠSome": 2273,
      "Ġmonths": 2274,
      "Ġpurp": 2275,
      "icient": 2276,
      "ands": 2277,
      "ĠĠĠĠĠĠĠĠĠĠĠĠĠĠĠĠĠĠĠĠĠĠĠĠĠĠĠĠĠĠĠĠĠĠĠĠĠĠĠĠĠĠĠĠĠĠĠĠĠĠĠĠĠĠĠĠĠĠĠĠĠĠĠĠ": 2278,
      "Ġmusic": 2279,
      "Ġdied": 2280,
      "ctor": 2281,
      "Ġgirl": 2282,
      "ĠMarch": 2283,
      "Ġrate": 2284,
      "There": 2285,
      "Ġimplement": 2286,
      "aving": 2287,
      "unt": 2288,
      "Ġtool": 2289,
      "roll": 2290,
      "Ġorig": 2291,
      "ĠGra": 2292,
      "nces": 2293,
      "Ġtarget": 2294,
      "isters": 2295,
      "Ġfather": 2296,
      "Ġregard": 2297,
      "Ġentire": 2298,
      "Ġbar": 2299,
      "Ġheld": 2300,
      "Ġexpress": 2301,
      "Ġvalue": 2302,
      "Ġprofess": 2303,
      "fort": 2304,
      "Ġhold": 2305,
      "ĠHist": 2306,
      "ĠDep": 2307,
      "Ġoccur": 2308,
      "Ġprotect": 2309,
      "book": 2310,
      "ging": 2311,
      "aring": 2312,
      "Ġnet": 2313,
      "Ġeffects": 2314,
      "Ġidea": 2315,
      "Ġwent": 2316,
      "Ġpan": 2317,
      "ĠGu": 2318,
      "Ġweek": 2319,
      "Ġcourt": 2320,
      "When": 2321,
      "ĠLear": 2322,
      "Ġforms": 2323,
      "ique": 2324,
      "ĠAb": 2325,
      "Ġconduct": 2326,
      "ĠDr": 2327,
      "ĠGe": 2328,
      "ification": 2329,
      "ban": 2330,
      "ev": 2331,
      "sy": 2332,
      "son": 2333,
      "Ġespecially": 2334,
      "rael": 2335,
      "Ġchalleng": 2336,
      "way": 2337,
      "Ġsite": 2338,
      "Ġstop": 2339,
      "ĠMed": 2340,
      "Ġvide": 2341,
      "ĠNorth": 2342,
      "Ġpopulation": 2343,
      "aries": 2344,
      "Ġtype": 2345,
      "ones": 2346,
      "Ġnature": 2347,
      "co": 2348,
      "ĠÂ": 2349,
      "Ġrepl": 2350,
      "ĠApp": 2351,
      "ĠMy": 2352,
      "ĠProgram": 2353,
      "Ġphot": 2354,
      "ĠEuropean": 2355,
      "UR": 2356,
      "Ġi": 2357,
      "Ġhours": 2358,
      "Ġreview": 2359,
      "13": 2360,
      "Ġz": 2361,
      "Ġsource": 2362,
      "Ġfire": 2363,
      "ĠGener": 2364,
      "Ġscient": 2365,
      "To": 2366,
      "ows": 2367,
      "Ġyet": 2368,
      "ĠRel": 2369,
      "Ġupon": 2370,
      "Ġquality": 2371,
      "ustr": 2372,
      "Ġarm": 2373,
      "Ġinterview": 2374,
      "Ġaware": 2375,
      "Ġsimilar": 2376,
      "reme": 2377,
      "Ġprograms": 2378,
      "25": 2379,
      "rect": 2380,
      "ided": 2381,
      "irit": 2382,
      "ivil": 2383,
      "Ġabs": 2384,
      "Ġaccept": 2385,
      "Ġcurricul": 2386,
      "Ġbelieve": 2387,
      "Ġdisease": 2388,
      "ĠSec": 2389,
      "Ġpercent": 2390,
      "Ġcreated": 2391,
      "ĠApril": 2392,
      "aith": 2393,
      "lin": 2394,
      "Ø±": 2395,
      "Ġcamp": 2396,
      "Ġline": 2397,
      "etimes": 2398,
      "ĠMe": 2399,
      "Ġ07": 2400,
      "Ġcultural": 2401,
      "60": 2402,
      "uary": 2403,
      "Ġfil": 2404,
      "ournal": 2405,
      "Ġneeded": 2406,
      "Ġreflect": 2407,
      "ĠSean": 2408,
      "ene": 2409,
      "Ġple": 2410,
      "ĠMc": 2411,
      "ĠSept": 2412,
      "Ġcustom": 2413,
      "ĠRec": 2414,
      "Ġusually": 2415,
      "oved": 2416,
      "Ġpersonal": 2417,
      "iation": 2418,
      "wh": 2419,
      "atives": 2420,
      "Ġla": 2421,
      "ĠCo": 2422,
      "Ġdoing": 2423,
      "Ġhigher": 2424,
      "etic": 2425,
      "aylor": 2426,
      "Ġ21": 2427,
      "Ġchoice": 2428,
      "ĠVal": 2429,
      "ysis": 2430,
      "ĠGroup": 2431,
      "Ġprep": 2432,
      "---|---|": 2433,
      "Ġfamilies": 2434,
      "ĠAm": 2435,
      "usion": 2436,
      "Ġ198": 2437,
      "14": 2438,
      "Ġopp": 2439,
      "à¤°": 2440,
      "Ġobject": 2441,
      "ĠCouncil": 2442,
      "ifest": 2443,
      "ĠDay": 2444,
      "Ġappear": 2445,
      "AS": 2446,
      "For": 2447,
      "Ġsent": 2448,
      "Ġwin": 2449,
      "Ġface": 2450,
      "adem": 2451,
      "Ġevents": 2452,
      "Ġapplic": 2453,
      "Ġrespect": 2454,
      "Ġdoesn": 2455,
      "enn": 2456,
      "Ġcases": 2457,
      "Ġdiv": 2458,
      "Ġred": 2459,
      "Ġstep": 2460,
      "ĠOct": 2461,
      "epend": 2462,
      "Ġactually": 2463,
      "fully": 2464,
      "Ġissue": 2465,
      "mar": 2466,
      "head": 2467,
      "Ġwind": 2468,
      "Ġnight": 2469,
      "Ġwhether": 2470,
      "17": 2471,
      "come": 2472,
      "ĠAg": 2473,
      "ĠCons": 2474,
      "Ġadvert": 2475,
      "Ġagre": 2476,
      "ĠProv": 2477,
      "ĠEnglish": 2478,
      "Ġexperiences": 2479,
      "Ġappropriate": 2480,
      "23": 2481,
      "rab": 2482,
      "ĠPar": 2483,
      "Ġcla": 2484,
      "Ġworks": 2485,
      "Ġevidence": 2486,
      "ĠYoung": 2487,
      "Ġconditions": 2488,
      "Ġsound": 2489,
      "ales": 2490,
      "iment": 2491,
      "Ġadop": 2492,
      "Ġmember": 2493,
      "ĠSmith": 2494,
      "Ã©": 2495,
      "onse": 2496,
      "ada": 2497,
      "Ġvict": 2498,
      "Ġ185": 2499,
      "Ġrad": 2500,
      "Ġtemper": 2501,
      "ery": 2502,
      "itch": 2503,
      "Ġmatter": 2504,
      "Ġemploy": 2505,
      "Ġfunction": 2506,
      "aut": 2507,
      "vant": 2508,
      "Ġ/": 2509,
      "ites": 2510,
      "Ġconcept": 2511,
      "istic": 2512,
      "Al": 2513,
      "sec": 2514,
      "Ġsun": 2515,
      "resh": 2516,
      "Ġsens": 2517,
      "aters": 2518,
      "Ġcut": 2519,
      "ises": 2520,
      "Ġlives": 2521,
      "Ġsuper": 2522,
      "Ġ184": 2523,
      "Ġregion": 2524,
      "Ġmedia": 2525,
      "Ġreported": 2526,
      "ÂłÂłÂłÂłÂłÂłÂłÂł": 2527,
      "ĠSociety": 2528,
      "Ġnecessary": 2529,
      "know": 2530,
      "Ġport": 2531,
      "ables": 2532,
      "Ġcompet": 2533,
      "Ġquick": 2534,
      "Ġtradition": 2535,
      "Ġspecies": 2536,
      "band": 2537,
      "Ġsect": 2538,
      "ences": 2539,
      "iter": 2540,
      "rad": 2541,
      "aches": 2542,
      "ption": 2543,
      "texts": 2544,
      "Ġvisit": 2545,
      "Ġsingle": 2546,
      "ched": 2547,
      "Ġcell": 2548,
      "Ġfat": 2549,
      "sequ": 2550,
      "Ġjob": 2551,
      "Ġsurface": 2552,
      "Ġmodel": 2553,
      "Ġcritical": 2554,
      "16": 2555,
      "ze": 2556,
      "ĠØ§": 2557,
      "Ġnorm": 2558,
      "oll": 2559,
      "Ġcannot": 2560,
      "Ġgifted": 2561,
      "ĠGeneral": 2562,
      "'ll": 2563,
      "She": 2564,
      "Ġlo": 2565,
      "ĠĠĠĠĠĠĠĠĠĠ": 2566,
      "ĠHom": 2567,
      "istics": 2568,
      "ush": 2569,
      "Ġselect": 2570,
      "plain": 2571,
      "Ġbring": 2572,
      "annel": 2573,
      "Ġmarket": 2574,
      "Ġfriends": 2575,
      "uge": 2576,
      "water": 2577,
      "Ġsold": 2578,
      "Ġlack": 2579,
      "Ġbegan": 2580,
      "Ġjoin": 2581,
      "Ġcompany": 2582,
      "Ġconsidered": 2583,
      "IC": 2584,
      "erson": 2585,
      "Ġgrade": 2586,
      "ĠStudents": 2587,
      "Ġtrue": 2588,
      "iber": 2589,
      "Ġprogress": 2590,
      "Ġexc": 2591,
      "Ġ50": 2592,
      "Ġrights": 2593,
      "ĠPresident": 2594,
      "ĠSeptember": 2595,
      "dom": 2596,
      "put": 2597,
      "ceed": 2598,
      "Ġprob": 2599,
      "oph": 2600,
      "reng": 2601,
      "Ġprevious": 2602,
      "Ġlonger": 2603,
      "Ġgrowth": 2604,
      "rition": 2605,
      "Ġsays": 2606,
      "Ġmor": 2607,
      "ĠCal": 2608,
      "ĠJu": 2609,
      "ĠArt": 2610,
      "Ġobserv": 2611,
      "ma": 2612,
      "isions": 2613,
      "Ġdom": 2614,
      "Ġdoc": 2615,
      "Ġdest": 2616,
      "ĠAug": 2617,
      "Ġplant": 2618,
      "Ġstrateg": 2619,
      "He": 2620,
      "Ġvers": 2621,
      "itable": 2622,
      "ulations": 2623,
      "Ġprincip": 2624,
      "Ġactivity": 2625,
      "ĠIsrael": 2626,
      "cript": 2627,
      "Ġcomes": 2628,
      "Ġdeg": 2629,
      "Ġidentify": 2630,
      "Ġterms": 2631,
      "Ġfrequ": 2632,
      "ground": 2633,
      "Ġcover": 2634,
      "edi": 2635,
      "Ġiniti": 2636,
      "Ġ27": 2637,
      "Ġsurv": 2638,
      "à¥ĩ": 2639,
      "ĠĠĠĠĠĠĠĠĠĠĠĠĠĠ": 2640,
      "IT": 2641,
      "Ùĩ": 2642,
      "Ġhus": 2643,
      "Ġhalf": 2644,
      "Ġincluded": 2645,
      "Ġx": 2646,
      "Ġsize": 2647,
      "ĠSy": 2648,
      "ĠPre": 2649,
      "ĠEast": 2650,
      "Ġsn": 2651,
      "Ġviol": 2652,
      "Ġinteg": 2653,
      "Ġlooking": 2654,
      "rim": 2655,
      "Ġdig": 2656,
      "racy": 2657,
      "irth": 2658,
      "ĠBro": 2659,
      "ĠEm": 2660,
      "Ġcontent": 2661,
      "Ġgetting": 2662,
      "Ġavoid": 2663,
      "ille": 2664,
      "Ġemer": 2665,
      "Ġlab": 2666,
      "Ġitself": 2667,
      "Ġ2022": 2668,
      "à¥į": 2669,
      "ĠPlan": 2670,
      "40": 2671,
      "ned": 2672,
      "oo": 2673,
      "ese": 2674,
      "Ġmention": 2675,
      "ules": 2676,
      "oseph": 2677,
      "Ġdefin": 2678,
      "ĠAmerica": 2679,
      "Ġprior": 2680,
      "Ġsources": 2681,
      "Ġfisher": 2682,
      "verage": 2683,
      "ades": 2684,
      "ĠWest": 2685,
      "Ġdeal": 2686,
      "ensive": 2687,
      "Ġstarted": 2688,
      "Ġcheck": 2689,
      "ĠResearch": 2690,
      "Ġtold": 2691,
      "Ġrev": 2692,
      "Ġlived": 2693,
      "rought": 2694,
      "ĠWhile": 2695,
      "Ġpractices": 2696,
      "Ġideas": 2697,
      "At": 2698,
      "RO": 2699,
      "ey": 2700,
      "like": 2701,
      "mon": 2702,
      "rew": 2703,
      "Ġpub": 2704,
      "Ġfelt": 2705,
      "anks": 2706,
      "Ġdrug": 2707,
      "Ġregular": 2708,
      "ĠJanuary": 2709,
      "light": 2710,
      "yle": 2711,
      "Ġtaking": 2712,
      "Ġonline": 2713,
      "Ġ100": 2714,
      "osition": 2715,
      "ĠFeb": 2716,
      "Ġcontext": 2717,
      "Ġoutside": 2718,
      "Ġpotential": 2719,
      "Ġhistorical": 2720,
      "Ġtowards": 2721,
      "icro": 2722,
      "ume": 2723,
      "Ġsearch": 2724,
      "Ġintro": 2725,
      "Ġanything": 2726,
      "Ġorganiz": 2727,
      "Ġsituation": 2728,
      "ĠEarth": 2729,
      "ÛĮ": 2730,
      "enc": 2731,
      "Ġreduce": 2732,
      "ĠCont": 2733,
      "Ġstreng": 2734,
      "Ġexerc": 2735,
      "Ġshare": 2736,
      "ospital": 2737,
      "Ġbreak": 2738,
      "Ph": 2739,
      "cient": 2740,
      "ses": 2741,
      "ĠAnt": 2742,
      "ĠCar": 2743,
      "Ġ28": 2744,
      "ĠEl": 2745,
      "Ġ186": 2746,
      "Ġrelated": 2747,
      "Ġeffective": 2748,
      "Ġfinanc": 2749,
      "Ġtotal": 2750,
      "Ġhusband": 2751,
      "Ġmat": 2752,
      "Ġdut": 2753,
      "cember": 2754,
      "Ġalmost": 2755,
      "apter": 2756,
      "ĠDevelop": 2757,
      "Ġseries": 2758,
      "Ġeconomic": 2759,
      "minist": 2760,
      "ibrary": 2761,
      "ÂŃ": 2762,
      "ÙĨ": 2763,
      "ĠSouth": 2764,
      "urity": 2765,
      "overed": 2766,
      "Ġdidn": 2767,
      "Ø¯": 2768,
      "Ġwife": 2769,
      "ĠMary": 2770,
      "ached": 2771,
      "ival": 2772,
      "07": 2773,
      "ply": 2774,
      "Ġwide": 2775,
      "Ġnoted": 2776,
      "ĠX": 2777,
      "Ġpage": 2778,
      "Ġbad": 2779,
      "Ġmillion": 2780,
      "ĠCom": 2781,
      "ĠIntern": 2782,
      "Ġ2011": 2783,
      "Ġattack": 2784,
      "Ġincreasing": 2785,
      "Ġeasy": 2786,
      "\\(": 2787,
      "hold": 2788,
      "hern": 2789,
      "verse": 2790,
      "ude": 2791,
      "ĠRich": 2792,
      "Ġsepar": 2793,
      "Ġwebs": 2794,
      "Ġtravel": 2795,
      "Ġscience": 2796,
      "ype": 2797,
      "Ġtechnology": 2798,
      "back": 2799,
      "Ġap": 2800,
      "ĠGo": 2801,
      "Ġparts": 2802,
      "Ġoffer": 2803,
      "Ġthroughout": 2804,
      "Ġgenerally": 2805,
      "ĠSuper": 2806,
      "ĠOctober": 2807,
      "CT": 2808,
      "Ġbur": 2809,
      "ender": 2810,
      "Ġhealthy": 2811,
      "Ġglobal": 2812,
      "Ġsafe": 2813,
      "Ġphysical": 2814,
      "ĠDepartment": 2815,
      "*,": 2816,
      "reen": 2817,
      "Ġmass": 2818,
      "ĠInt": 2819,
      "uted": 2820,
      "Ġillustr": 2821,
      "bor": 2822,
      "rel": 2823,
      "Ġsat": 2824,
      "Ġce": 2825,
      "imum": 2826,
      "ĠWater": 2827,
      "Ġ22": 2828,
      "Ġenj": 2829,
      "Ġbecom": 2830,
      "Ġroad": 2831,
      "ĠAfrica": 2832,
      "go": 2833,
      "ĠBab": 2834,
      "Ġguid": 2835,
      "Ġanswer": 2836,
      "Ġmom": 2837,
      "Ġlower": 2838,
      "ĠTra": 2839,
      "Ġitem": 2840,
      "Ġliterature": 2841,
      "Ġfront": 2842,
      "ule": 2843,
      "erve": 2844,
      "empt": 2845,
      "ĠJes": 2846,
      "ĠJoseph": 2847,
      "ends": 2848,
      "Ġearth": 2849,
      "Ġclean": 2850,
      "Ġprojects": 2851,
      "Ġdamage": 2852,
      "Ġprivate": 2853,
      "ĠAugust": 2854,
      "Ġbrain": 2855,
      "Ġlink": 2856,
      "ĠSister": 2857,
      "ĠAfter": 2858,
      "Ġvir": 2859,
      "Ġincludes": 2860,
      "Ġminutes": 2861,
      "ĠCommunity": 2862,
      "AD": 2863,
      "Ġpath": 2864,
      "Ġbit": 2865,
      "Ġwhom": 2866,
      "ĠRiver": 2867,
      "Ġexpect": 2868,
      "anced": 2869,
      "Ġwanted": 2870,
      "................................................................": 2871,
      "Ġmaterials": 2872,
      "ĠAssoci": 2873,
      "Ġachieve": 2874,
      "iers": 2875,
      "Ġtakes": 2876,
      "Ġinform": 2877,
      "Ġstaff": 2878,
      "Ġcontain": 2879,
      "Ġagric": 2880,
      "ĠAnn": 2881,
      "Ġinvolved": 2882,
      "ino": 2883,
      "erous": 2884,
      "Ġled": 2885,
      "Ġappl": 2886,
      "Ġemot": 2887,
      "hens": 2888,
      "ĠTeacher": 2889,
      "Ġindividuals": 2890,
      "Ġhousing": 2891,
      "iable": 2892,
      "Ġeight": 2893,
      "Ġstay": 2894,
      "oper": 2895,
      "Ġskin": 2896,
      "ĠSocial": 2897,
      "\\(^": 2898,
      "ae": 2899,
      "ĠMem": 2900,
      "ĠDec": 2901,
      "oses": 2902,
      "Ġspirit": 2903,
      "ĠDecember": 2904,
      "Ġanalysis": 2905,
      "Ġcoun": 2906,
      "ington": 2907,
      "olic": 2908,
      "igr": 2909,
      "Ġsoil": 2910,
      "Ġopportunity": 2911,
      "Ġfight": 2912,
      "Ġbab": 2913,
      "arily": 2914,
      "Ġmission": 2915,
      "ĠAction": 2916,
      "âĢĿ.": 2917,
      "Ġeval": 2918,
      "ĠReg": 2919,
      "Ġcapital": 2920,
      "Ġmovement": 2921,
      "ĠWilliam": 2922,
      "Ġcollabor": 2923,
      "Ġpurpose": 2924,
      "70": 2925,
      "\\)": 2926,
      "bed": 2927,
      "Ġaction": 2928,
      "Ġfav": 2929,
      "Ġfaith": 2930,
      "Ġbal": 2931,
      "Ġtown": 2932,
      "ĠTaylor": 2933,
      "Ġaspect": 2934,
      "ĠBrit": 2935,
      "ĠEv": 2936,
      "ĠDist": 2937,
      "Ġquite": 2938,
      "Ġblack": 2939,
      "Ġperformance": 2940,
      "zz": 2941,
      "Ġdiet": 2942,
      "udget": 2943,
      "Ġdeep": 2944,
      "aging": 2945,
      "Ġactive": 2946,
      "199": 2947,
      "Ġdemon": 2948,
      "rigation": 2949,
      "Ġtaught": 2950,
      "Ġyouth": 2951,
      "Ġinternational": 2952,
      "ĠHistory": 2953,
      "off": 2954,
      "Ġut": 2955,
      "reet": 2956,
      "Ġwalk": 2957,
      "omen": 2958,
      "ips": 2959,
      "Ġaccording": 2960,
      "Ġindic": 2961,
      "Ġimportance": 2962,
      "ĠScott": 2963,
      "mitted": 2964,
      "ĠJuly": 2965,
      "uel": 2966,
      "oted": 2967,
      "ĠOf": 2968,
      "Ġinteract": 2969,
      "Ġtransport": 2970,
      "Ġmodern": 2971,
      "Ġwritten": 2972,
      "Ġbasis": 2973,
      "IL": 2974,
      "hib": 2975,
      "Ġslow": 2976,
      "oration": 2977,
      "lex": 2978,
      "vey": 2979,
      "irm": 2980,
      "ĠJune": 2981,
      "Ġcontinue": 2982,
      "Ġaffect": 2983,
      "Ġbenefits": 2984,
      "Ex": 2985,
      "aid": 2986,
      "ÙĪ": 2987,
      "Ġfoot": 2988,
      "Ġreve": 2989,
      "chan": 2990,
      "Ġeveryone": 2991,
      "Ġextra": 2992,
      "Ġoccup": 2993,
      "Ġspeak": 2994,
      "Ġengine": 2995,
      "Ġtrying": 2996,
      "Ġtreatment": 2997,
      "ĠValley": 2998,
      "Figure": 2999,
      "On": 3000,
      "gen": 3001,
      "pir": 3002,
      "Ġcat": 3003,
      "Ġcit": 3004,
      "Ġmess": 3005,
      "Ġhost": 3006,
      "abit": 3007,
      "ĠRom": 3008,
      "Ġneigh": 3009,
      "ĠInstit": 3010,
      "overn": 3011,
      "Ġarticle": 3012,
      "Ġshows": 3013,
      "Ġcentury": 3014,
      "Ġbroad": 3015,
      "Ġelse": 3016,
      "Ã³": 3017,
      "Ġ+": 3018,
      "Ġbirth": 3019,
      "ĠBar": 3020,
      "ĠRuss": 3021,
      "Ġsimply": 3022,
      "Ġmultip": 3023,
      "ED": 3024,
      "ran": 3025,
      "ware": 3026,
      "Ùħ": 3027,
      "Ġbrought": 3028,
      "Ġrecre": 3029,
      "Ġ2010": 3030,
      "Ġ2012": 3031,
      "Ġremain": 3032,
      "Ġpressure": 3033,
      "Ġenjoy": 3034,
      "ault": 3035,
      "lt": 3036,
      "Ġwatch": 3037,
      "Ġthreat": 3038,
      "Ġlate": 3039,
      "ĠAust": 3040,
      "Ġstudies": 3041,
      "ĠVII": 3042,
      "Ġ2008": 3043,
      "Ġeverything": 3044,
      "Ġmedic": 3045,
      "Ġexamples": 3046,
      "Ġreligious": 3047,
      "ait": 3048,
      "Ð¿": 3049,
      "Ġloss": 3050,
      "ĠYour": 3051,
      "Ġtopic": 3052,
      "Ġadditional": 3053,
      "Ġmethods": 3054,
      "Ġwood": 3055,
      "quare": 3056,
      "ogy": 3057,
      "Ġcontact": 3058,
      "ruary": 3059,
      "Ġjud": 3060,
      "Ġarg": 3061,
      "ND": 3062,
      "cer": 3063,
      "eal": 3064,
      "Ġaverage": 3065,
      "Ġsong": 3066,
      "orge": 3067,
      "idge": 3068,
      "Ġwhite": 3069,
      "aint": 3070,
      "Ġ2013": 3071,
      "Ġbuilt": 3072,
      "Ġextreme": 3073,
      "Ġpopular": 3074,
      "Ġpp": 3075,
      "ĠMon": 3076,
      "ĠMoon": 3077,
      "izing": 3078,
      "Ġtherefore": 3079,
      "Ġarri": 3080,
      "Ġrefer": 3081,
      "ING": 3082,
      "Ġparticularly": 3083,
      "ps": 3084,
      "uff": 3085,
      "ulated": 3086,
      "Ġadj": 3087,
      "ĠChildren": 3088,
      "Ġbuy": 3089,
      "Ġinstead": 3090,
      "Ġboard": 3091,
      "Ġvariety": 3092,
      "Ġserious": 3093,
      "Ġproperty": 3094,
      "Ġproducts": 3095,
      "Ġten": 3096,
      "Ġmilit": 3097,
      "Ġthus": 3098,
      "Ġgave": 3099,
      "Ġsimple": 3100,
      "Ġnutrition": 3101,
      "HE": 3102,
      "Ġcatch": 3103,
      "Ġfram": 3104,
      "Ġmiss": 3105,
      "ĠĠĠĠĠĠĠĠĠĠĠ": 3106,
      "ecause": 3107,
      "Ġcomputer": 3108,
      "Ġ40": 3109,
      "2012": 3110,
      "haps": 3111,
      "iro": 3112,
      "eds": 3113,
      "archer": 3114,
      "Ġeth": 3115,
      "Ġlay": 3116,
      "Ġ29": 3117,
      "Ġchannel": 3118,
      "used": 3119,
      "Ġdeb": 3120,
      "Ġunit": 3121,
      "Ġefforts": 3122,
      "Ġresponse": 3123,
      "Ġstandard": 3124,
      "Ġliteracy": 3125,
      "ĠJesus": 3126,
      "Ġcivil": 3127,
      "rand": 3128,
      "ops": 3129,
      "Ġheav": 3130,
      "Ġheating": 3131,
      "ĠNot": 3132,
      "ederal": 3133,
      "US": 3134,
      "ball": 3135,
      "gar": 3136,
      "Ġhope": 3137,
      "imately": 3138,
      "Ġsaw": 3139,
      "Ġpatients": 3140,
      "Ġbehind": 3141,
      "Ġinfluence": 3142,
      "based": 3143,
      "Ġfarm": 3144,
      "anish": 3145,
      "ĠMus": 3146,
      "ĠPart": 3147,
      "astic": 3148,
      "ĊĊĊĊ": 3149,
      "Ġoverall": 3150,
      "Ġacadem": 3151,
      "Ġattention": 3152,
      "Ġsites": 3153,
      "Ġstructure": 3154,
      "AM": 3155,
      "coh": 3156,
      "oms": 3157,
      "ĠMiss": 3158,
      "Ġ26": 3159,
      "umb": 3160,
      "aves": 3161,
      "Ġopportunities": 3162,
      "Ġsection": 3163,
      "oring": 3164,
      "Ġrac": 3165,
      "Ġrespond": 3166,
      "Ġvalues": 3167,
      "Ġreceived": 3168,
      "yond": 3169,
      "ĠSw": 3170,
      "raw": 3171,
      "opy": 3172,
      "Ġsoft": 3173,
      "ervation": 3174,
      "Ġconsist": 3175,
      "Ġhelps": 3176,
      "Ġcomplex": 3177,
      "Ġdesigned": 3178,
      "Ġcurriculum": 3179,
      "ĠFebruary": 3180,
      "ĠAssociation": 3181,
      "gest": 3182,
      "Øª": 3183,
      "Ġcou": 3184,
      "Ġcross": 3185,
      "Ġthous": 3186,
      "rial": 3187,
      "ĠOF": 3188,
      "rugg": 3189,
      "Ġattempt": 3190,
      "ĠRead": 3191,
      "Ġtypes": 3192,
      "Ġfinancial": 3193,
      "Ġlog": 3194,
      "ĠServ": 3195,
      "eter": 3196,
      "Ġspread": 3197,
      "Ġ194": 3198,
      "Ġprec": 3199,
      "Ġproviding": 3200,
      "ength": 3201,
      "Ġconnect": 3202,
      "Ġseems": 3203,
      "Ġprobably": 3204,
      "ĠDevelopment": 3205,
      "\".": 3206,
      "rast": 3207,
      "ĠThen": 3208,
      "ĠOff": 3209,
      "à¤¨": 3210,
      "Ġnumbers": 3211,
      "Ġresearcher": 3212,
      "Ġbox": 3213,
      "Ġgreater": 3214,
      "RE": 3215,
      "ores": 3216,
      "estern": 3217,
      "Ġdog": 3218,
      "lear": 3219,
      "Ġreach": 3220,
      "iforn": 3221,
      "ĠWood": 3222,
      "Ġworked": 3223,
      "Ġflu": 3224,
      "Ġpoints": 3225,
      "Ġlegal": 3226,
      "Ġassociated": 3227,
      "Ġvideo": 3228,
      "But": 3229,
      "wo": 3230,
      "itness": 3231,
      "ift": 3232,
      "Ġexcept": 3233,
      "osing": 3234,
      "ĠOS": 3235,
      "Ġrecent": 3236,
      "Ġindepend": 3237,
      "Ġprogramm": 3238,
      "eople": 3239,
      "enty": 3240,
      "Ġreact": 3241,
      "Ġproduction": 3242,
      "ĠBr": 3243,
      "play": 3244,
      "Ġarch": 3245,
      "Ġrace": 3246,
      "Ġfeatures": 3247,
      "Ġplanning": 3248,
      "ĠIndia": 3249,
      "Ġmeaning": 3250,
      "cohol": 3251,
      "Ġpray": 3252,
      "icles": 3253,
      "icien": 3254,
      "asons": 3255,
      "Ġthird": 3256,
      "ctions": 3257,
      "Ġgame": 3258,
      "Ġund": 3259,
      "illing": 3260,
      "ĠFirst": 3261,
      "ĠOther": 3262,
      "Ġweight": 3263,
      "Ġresid": 3264,
      "ĠStart": 3265,
      "Ġhimself": 3266,
      "Ġfields": 3267,
      "Ġdrive": 3268,
      "Ġlimited": 3269,
      "Ġwrong": 3270,
      "Ġquickly": 3271,
      ");": 3272,
      "28": 3273,
      "Ġsem": 3274,
      "Ġfresh": 3275,
      "Ġsust": 3276,
      "ĠRem": 3277,
      "Ġadult": 3278,
      "oint": 3279,
      "Ġsett": 3280,
      "Ġhands": 3281,
      "Ġveget": 3282,
      "Ġplaces": 3283,
      "Ġprimary": 3284,
      "ID": 3285,
      "vere": 3286,
      "ĠFund": 3287,
      "Ġnothing": 3288,
      "Ġ188": 3289,
      "Ġorganization": 3290,
      "Ġsometimes": 3291,
      "Ġcapac": 3292,
      "Ġmajority": 3293,
      "Ġmeeting": 3294,
      "ĠCenter": 3295,
      "ĠGerman": 3296,
      "BC": 3297,
      "ety": 3298,
      "ĠHar": 3299,
      "ression": 3300,
      "Ġenvironmental": 3301,
      "Ġmeasure": 3302,
      "Ġestablish": 3303,
      "itation": 3304,
      "Ġge": 3305,
      "ĠAng": 3306,
      "ĠHouse": 3307,
      "Ġ35": 3308,
      "Ġcommerc": 3309,
      "ordin": 3310,
      "Ġmonitor": 3311,
      "Ġfishing": 3312,
      "Ġbeginning": 3313,
      "Ġtools": 3314,
      "Ġwebsite": 3315,
      "Ġsil": 3316,
      "Ġcred": 3317,
      "Ġmort": 3318,
      "Ġhon": 3319,
      "set": 3320,
      "ĠAcc": 3321,
      "Ġformer": 3322,
      "erences": 3323,
      "ĠVI": 3324,
      "Ġago": 3325,
      "Ġhighly": 3326,
      "Ġsetting": 3327,
      "Ġcourses": 3328,
      "Ġhomes": 3329,
      "Ġresponsible": 3330,
      "?âĢĿ": 3331,
      "So": 3332,
      "equ": 3333,
      "lam": 3334,
      "Ġmur": 3335,
      "Ġdou": 3336,
      "Ġstrugg": 3337,
      "Ġforce": 3338,
      "ĠWash": 3339,
      "Ġuser": 3340,
      "Ġcolor": 3341,
      "Ġdeveloping": 3342,
      "atherine": 3343,
      "Ġdirectly": 3344,
      "sych": 3345,
      "ifornia": 3346,
      "Is": 3347,
      "ms": 3348,
      "overy": 3349,
      "za": 3350,
      "Ġwon": 3351,
      "Ġwall": 3352,
      "Ġcod": 3353,
      "ĠCO": 3354,
      "Ġste": 3355,
      "aces": 3356,
      "osion": 3357,
      "unch": 3358,
      "Ġknew": 3359,
      "Ġtrade": 3360,
      "vention": 3361,
      "ĠĠĠĠĠĠĠĠĠĠĠĠĠĠĠ": 3362,
      "Ġboys": 3363,
      "ĠRelief": 3364,
      "rehens": 3365,
      "asc": 3366,
      "ĠArab": 3367,
      "elines": 3368,
      "pper": 3369,
      "uman": 3370,
      "Ġmechan": 3371,
      "Ġunc": 3372,
      "Ġpred": 3373,
      "aughters": 3374,
      "Ġveh": 3375,
      "Ġexisting": 3376,
      "Ġmach": 3377,
      "Ġhot": 3378,
      "ĠCath": 3379,
      "Ġstories": 3380,
      "ĠPal": 3381,
      "Ġuses": 3382,
      "Ġobtain": 3383,
      "Ġcentral": 3384,
      "Ġwrite": 3385,
      "Ġofficial": 3386,
      "Ġindustry": 3387,
      "ĠLearning": 3388,
      "Ġclaim": 3389,
      "Ġtraditional": 3390,
      "Ġstrategies": 3391,
      "33": 3392,
      "Ġrou": 3393,
      "Ġwond": 3394,
      "Ġdaily": 3395,
      "icip": 3396,
      "Ġcomment": 3397,
      "ogle": 3398,
      "elling": 3399,
      "Ġemp": 3400,
      "Ġà¤ķ": 3401,
      "Ġelectric": 3402,
      "arian": 3403,
      "Ġmob": 3404,
      "Ġmagn": 3405,
      "ĠType": 3406,
      "ĠAre": 3407,
      "Ġproduced": 3408,
      "ĠFrom": 3409,
      "Ġseason": 3410,
      "ÂłĊ": 3411,
      "Ġ196": 3412,
      "ĠKing": 3413,
      "Ġallows": 3414,
      "Ġgrowing": 3415,
      "Ġreceive": 3416,
      "Ġestablished": 3417,
      "ioneers": 3418,
      "Ġnetwork": 3419,
      "Ġchallenges": 3420,
      "fect": 3421,
      "Ġaud": 3422,
      "inks": 3423,
      "aled": 3424,
      "Ġeat": 3425,
      "--|": 3426,
      "term": 3427,
      "ocrat": 3428,
      "estion": 3429,
      "ĠDi": 3430,
      "Ġ189": 3431,
      "Ġdifference": 3432,
      "ĠReview": 3433,
      "iction": 3434,
      "Ġbelief": 3435,
      "Ġchoose": 3436,
      "Ġresponsibility": 3437,
      "Ġcorrect": 3438,
      "Ġdraw": 3439,
      "Ġpublished": 3440,
      "Sh": 3441,
      "uk": 3442,
      "wise": 3443,
      "rec": 3444,
      "Ġwid": 3445,
      "Ġbeaut": 3446,
      "ĠST": 3447,
      "ocal": 3448,
      "Ġdisp": 3449,
      "Ġtruth": 3450,
      "Ġleading": 3451,
      "Ġdistrib": 3452,
      "Ġcurrently": 3453,
      "Ġmeasures": 3454,
      "Ġdescribed": 3455,
      "ĠCanada": 3456,
      "Ġmilitary": 3457,
      "nov": 3458,
      "Ġtable": 3459,
      "isation": 3460,
      "Ġbeyond": 3461,
      "Ġdead": 3462,
      "Ġ31": 3463,
      "Ġmemorial": 3464,
      "Ġanimal": 3465,
      "Ġdocument": 3466,
      "Ġdemonstr": 3467,
      "Ġcommercial": 3468,
      "One": 3469,
      "onn": 3470,
      "leep": 3471,
      "ĠIII": 3472,
      "ĠJay": 3473,
      "ĠOur": 3474,
      "Ġexplain": 3475,
      "oice": 3476,
      "Ġfair": 3477,
      "Ġlost": 3478,
      "Ġhair": 3479,
      "Ġuseful": 3480,
      "Ġoffice": 3481,
      "Ġdecision": 3482,
      "Ġmedical": 3483,
      "Ġconflic": 3484,
      "ĠRepublic": 3485,
      "erg": 3486,
      "Ġbank": 3487,
      "ĠMr": 3488,
      "ulate": 3489,
      "ĠBook": 3490,
      "Ġcoming": 3491,
      "ĠDav": 3492,
      "ĠNet": 3493,
      "Ġyourself": 3494,
      "à¤Ĥ": 3495,
      "Ġ2020": 3496,
      "Ġgoal": 3497,
      "ovember": 3498,
      "Ġ2005": 3499,
      "Ġcarry": 3500,
      "Ġguide": 3501,
      "Ġimmedi": 3502,
      "year": 3503,
      "Ġver": 3504,
      "Ġpack": 3505,
      "Ġhol": 3506,
      "Ġhospital": 3507,
      "ĠMost": 3508,
      "ĠRed": 3509,
      "Ġplants": 3510,
      "Ġsoon": 3511,
      "Ġ190": 3512,
      "Ġprepar": 3513,
      "atively": 3514,
      "Ġfeed": 3515,
      "Ġpolice": 3516,
      "Ġresponses": 3517,
      "ĠMinistry": 3518,
      "Ġtemperature": 3519,
      "ĠCalifornia": 3520,
      "24": 3521,
      "And": 3522,
      "Mrs": 3523,
      "PI": 3524,
      "oe": 3525,
      "ror": 3526,
      "Ġdate": 3527,
      "iful": 3528,
      "Ġleave": 3529,
      "ulture": 3530,
      "ĠInc": 3531,
      "text": 3532,
      "Ġ60": 3533,
      "à¥Ģ": 3534,
      "ĠCharl": 3535,
      "ĠHomeless": 3536,
      "aud": 3537,
      "cing": 3538,
      "Ġ#": 3539,
      "Ġtask": 3540,
      "Ġwild": 3541,
      "Ġcard": 3542,
      "Ġmuseum": 3543,
      "Ġaltern": 3544,
      "Ġconvers": 3545,
      "Ġord": 3546,
      "ĠUs": 3547,
      "Ġtrust": 3548,
      "Ġcounty": 3549,
      "Ġrequest": 3550,
      "Ġthinking": 3551,
      "Ġlooked": 3552,
      "Ġlarger": 3553,
      "Ġdiscussion": 3554,
      "Ã³n": 3555,
      "iciency": 3556,
      "26": 3557,
      "edag": 3558,
      "Ġdang": 3559,
      "Ġdark": 3560,
      "rown": 3561,
      "Ġones": 3562,
      "amed": 3563,
      "ĠMany": 3564,
      "ĠBoard": 3565,
      "aced": 3566,
      "ategy": 3567,
      "ework": 3568,
      "Ġresist": 3569,
      "Ġgrand": 3570,
      "ducing": 3571,
      "Ġpattern": 3572,
      "Ġstatus": 3573,
      "Ġhttps": 3574,
      "Ġeyes": 3575,
      "fact": 3576,
      "vest": 3577,
      "itz": 3578,
      "oud": 3579,
      "ĠIV": 3580,
      "Ġexact": 3581,
      "tee": 3582,
      "Ġgrad": 3583,
      "rapy": 3584,
      "ĠDistrict": 3585,
      "35": 3586,
      "Pro": 3587,
      "pen": 3588,
      "Ġson": 3589,
      "Ġbudget": 3590,
      "Ġmiddle": 3591,
      "Ġgives": 3592,
      "amin": 3593,
      "amer": 3594,
      "Ġproduce": 3595,
      "ĊĊĊ": 3596,
      "Ġanyone": 3597,
      "ixed": 3598,
      "Ġgreen": 3599,
      "Ġurban": 3600,
      "ĠGeorge": 3601,
      "Ġnormal": 3602,
      "Ġmentioned": 3603,
      "Ġinj": 3604,
      "ĠHigh": 3605,
      "Ġheard": 3606,
      "iece": 3607,
      "Ġ2004": 3608,
      "Ġdepartment": 3609,
      "ĠConf": 3610,
      "Ġauthorities": 3611,
      "ĠInstitute": 3612,
      "where": 3613,
      "xx": 3614,
      "Ġpark": 3615,
      "ancy": 3616,
      "see": 3617,
      "ĠAS": 3618,
      "aste": 3619,
      "ension": 3620,
      "Ġpoll": 3621,
      "ĠSee": 3622,
      "airs": 3623,
      "ĠScience": 3624,
      "Ġdiscussed": 3625,
      "Ġsuccessful": 3626,
      "Ġrelevant": 3627,
      "ST": 3628,
      "bid": 3629,
      "Ġep": 3630,
      "ĠLanguage": 3631,
      "Ġsex": 3632,
      "Ġshall": 3633,
      "Ġadminist": 3634,
      "ĠInter": 3635,
      "Ġpartn": 3636,
      "ĠAlthough": 3637,
      "Ġcontinued": 3638,
      "Ġbehavi": 3639,
      "Ġrecommend": 3640,
      "Ġmultiple": 3641,
      "Sat": 3642,
      "eks": 3643,
      "http": 3644,
      "lim": 3645,
      "esign": 3646,
      "Ġfell": 3647,
      "Ġbul": 3648,
      "Ġstress": 3649,
      "ĠDem": 3650,
      "Ġworth": 3651,
      "ellig": 3652,
      "Ġunivers": 3653,
      "Ġacqu": 3654,
      "Ġemb": 3655,
      "Ġadded": 3656,
      "Ġdecisions": 3657,
      "Ġprogramme": 3658,
      "Ġfactors": 3659,
      "ĠAfrican": 3660,
      "Ġirrigation": 3661,
      "ĠSecond": 3662,
      "Ġorganizations": 3663,
      "Ġduty": 3664,
      "DA": 3665,
      "Ġtit": 3666,
      "Ġpick": 3667,
      "Ġmath": 3668,
      "cell": 3669,
      "ĠCatherine": 3670,
      "Ġstated": 3671,
      "Ġstock": 3672,
      "ĠJust": 3673,
      "Ġimag": 3674,
      "bert": 3675,
      "phas": 3676,
      "Ġremember": 3677,
      "Ġcycle": 3678,
      "Ġsuffering": 3679,
      "Ġadvertis": 3680,
      "'.": 3681,
      "ara": 3682,
      "Ġalcohol": 3683,
      "erscript": 3684,
      "âĢĻ,": 3685,
      "Ġshared": 3686,
      "Ġimage": 3687,
      "Ġsubst": 3688,
      "iques": 3689,
      "Ġcreating": 3690,
      "porary": 3691,
      "ENT": 3692,
      "Ġdetermine": 3693,
      "bon": 3694,
      "ias": 3695,
      "lection": 3696,
      "vement": 3697,
      "iding": 3698,
      "ĠAc": 3699,
      "izes": 3700,
      "Ġteach": 3701,
      "Ġcompan": 3702,
      "rick": 3703,
      "Ġraised": 3704,
      "Ġ2017": 3705,
      "uperscript": 3706,
      "Ġbrother": 3707,
      "Ġreligion": 3708,
      "ĠGermany": 3709,
      "textsuperscript": 3710,
      "Ġcitiz": 3711,
      "overnment": 3712,
      "SS": 3713,
      "ham": 3714,
      "yc": 3715,
      "Ġoil": 3716,
      "Ġpo": 3717,
      "aly": 3718,
      "Ġlabor": 3719,
      "Ġshown": 3720,
      "rench": 3721,
      "Ġgoes": 3722,
      "Ġ187": 3723,
      "Ġnews": 3724,
      "Ġconcent": 3725,
      "Ġopin": 3726,
      "Ġfoods": 3727,
      "Ġpromote": 3728,
      "Ġdrink": 3729,
      "Ġcaused": 3730,
      "Ġdetails": 3731,
      "Ġsoldiers": 3732,
      "Ġstrength": 3733,
      "Ġbaby": 3734,
      "Ġlength": 3735,
      "ĠSNA": 3736,
      "ĠTem": 3737,
      "amb": 3738,
      "ĠMor": 3739,
      "Ġhear": 3740,
      "ĠWork": 3741,
      "Ġadapt": 3742,
      "Ġactual": 3743,
      "Ġsym": 3744,
      "Ġassum": 3745,
      "Ġprotection": 3746,
      "Ġspeed": 3747,
      "Ġanaly": 3748,
      "Ġscientific": 3749,
      "Ġexercise": 3750,
      "ai": 3751,
      "oes": 3752,
      "Ġhor": 3753,
      "rote": 3754,
      "Ġisn": 3755,
      "Ġstar": 3756,
      "ĠMore": 3757,
      "ĠMars": 3758,
      "ĠLord": 3759,
      "ĠOg": 3760,
      "plic": 3761,
      "Ġwhose": 3762,
      "Ġjour": 3763,
      "Ġapply": 3764,
      "Ġactions": 3765,
      "Ġearl": 3766,
      "Ġseek": 3767,
      "Ġplaced": 3768,
      "Ġassessment": 3769,
      "Ġawareness": 3770,
      "ĠOSCE": 3771,
      "iar": 3772,
      "lig": 3773,
      "load": 3774,
      "isl": 3775,
      "Ġmicro": 3776,
      "Ġharm": 3777,
      "Ġgiving": 3778,
      "Ġgames": 3779,
      "ĠNovember": 3780,
      "à¤¿": 3781,
      "Ġ2021": 3782,
      "Ġ195": 3783,
      "Ġevolution": 3784,
      "lands": 3785,
      "Ġmoving": 3786,
      "Ġstandards": 3787,
      "Ġpromot": 3788,
      "Ġpanel": 3789,
      "Ġcateg": 3790,
      "Ġbed": 3791,
      "Ġmax": 3792,
      "ought": 3793,
      "Ġbackground": 3794,
      "Ġhumans": 3795,
      "Ġsolar": 3796,
      "Ġolder": 3797,
      "ography": 3798,
      "ioneer": 3799,
      "Ġanimals": 3800,
      "Ġrecreational": 3801,
      "ĠWashington": 3802,
      "Un": 3803,
      "ford": 3804,
      "oke": 3805,
      "yth": 3806,
      "Ġsed": 3807,
      "itc": 3808,
      "oul": 3809,
      "Ġenter": 3810,
      "Ġestim": 3811,
      "Ġeasily": 3812,
      "Ġrunning": 3813,
      "Ġautom": 3814,
      "Ġagricultural": 3815,
      "Ġcapacity": 3816,
      "DG": 3817,
      "tion": 3818,
      "uments": 3819,
      "ĊĠĠ": 3820,
      "Ġstri": 3821,
      "Ġalone": 3822,
      "Ġcondition": 3823,
      "ĠGl": 3824,
      "Ġusers": 3825,
      "Ġreference": 3826,
      "rolled": 3827,
      "Ġconducted": 3828,
      "\\(^{": 3829,
      "Ġsustain": 3830,
      "ĠÃ": 3831,
      "Ġfast": 3832,
      "ifically": 3833,
      "ĠTheir": 3834,
      "opper": 3835,
      "ĠWell": 3836,
      "resp": 3837,
      "ĠJournal": 3838,
      "Ġqual": 3839,
      "Ġ2003": 3840,
      "Ġcenter": 3841,
      "Ġfinal": 3842,
      "Ġbasic": 3843,
      "Ġoptions": 3844,
      "Ġmotiv": 3845,
      "Ġintegr": 3846,
      "encies": 3847,
      "Ġmoment": 3848,
      "ĠAustral": 3849,
      "Ad": 3850,
      "Ġfit": 3851,
      "oving": 3852,
      "Ġinterp": 3853,
      "Ġacknow": 3854,
      "overty": 3855,
      "Ġidentified": 3856,
      "ĠEngland": 3857,
      "----------------------------------------------------------------": 3858,
      "Ġ259": 3859,
      "Ġcauses": 3860,
      "Ġbehavior": 3861,
      "Ġacademic": 3862,
      "80": 3863,
      "}\\)": 3864,
      "Ġtheory": 3865,
      "Ġswe": 3866,
      "Ġbound": 3867,
      "Ġmis": 3868,
      "Ġreasons": 3869,
      "urance": 3870,
      "ĠFin": 3871,
      "Ġspent": 3872,
      "Ġweeks": 3873,
      "ieties": 3874,
      "tty": 3875,
      "ĠShow": 3876,
      "Ġcreative": 3877,
      "Ġeconomy": 3878,
      "Ġessential": 3879,
      "Ġprepared": 3880,
      "Ġapplication": 3881,
      "No": 3882,
      "mission": 3883,
      "itude": 3884,
      "orpor": 3885,
      "Ġfully": 3886,
      "Ġhit": 3887,
      "omas": 3888,
      "ĠIll": 3889,
      "ĠHere": 3890,
      "ache": 3891,
      "Ġseven": 3892,
      "ĠJames": 3893,
      "Ġabilities": 3894,
      "Ġunique": 3895,
      "isms": 3896,
      "Ġgets": 3897,
      "Ġ2009": 3898,
      "Ġorganized": 3899,
      "Ġdemand": 3900,
      "Ġcosts": 3901,
      "Ġforeign": 3902,
      "Ġreturned": 3903,
      "Ġinvestig": 3904,
      "Ġencourage": 3905,
      "body": 3906,
      "more": 3907,
      "ya": 3908,
      "lev": 3909,
      "ĠIT": 3910,
      "à¤²": 3911,
      "Ġaccomp": 3912,
      "Ġrap": 3913,
      "ĠWhy": 3914,
      "Ġclasses": 3915,
      "Ġsecurity": 3916,
      "Ġsolution": 3917,
      "Ġparticipants": 3918,
      "Ġcalc": 3919,
      "ĠInternational": 3920,
      "Ġcele": 3921,
      "\",": 3922,
      "EL": 3923,
      "UT": 3924,
      "With": 3925,
      "yl": 3926,
      "ĠTor": 3927,
      "Ġgas": 3928,
      "key": 3929,
      "ĠEven": 3930,
      "aints": 3931,
      "Ġfeet": 3932,
      "ĠĠĠĠĠĠĠĠĠĠĠĠĠĠĠĠĠĠĠĠĠĠĠĠĠĠĠĠĠĠĠĠĠĠĠĠĠĠĠĠĠĠĠĠĠĠĠĠ": 3933,
      "Ġpresident": 3934,
      "Ġphone": 3935,
      "Ġfollowed": 3936,
      "Ġà¤¸": 3937,
      "ĠSpec": 3938,
      "Ġserve": 3939,
      "Ġadvice": 3940,
      "Ġallowed": 3941,
      "Ġcollection": 3942,
      "Ġpresented": 3943,
      "Ġcompletely": 3944,
      "Ġannual": 3945,
      "Ġinstitutions": 3946,
      "Ġitems": 3947,
      "Ġbalance": 3948,
      "HR": 3949,
      "OT": 3950,
      "Sp": 3951,
      "eff": 3952,
      "ping": 3953,
      "ris": 3954,
      "anch": 3955,
      "Ġden": 3956,
      "Ġnation": 3957,
      "urt": 3958,
      "amily": 3959,
      "ĠMuseum": 3960,
      "odies": 3961,
      "ĠET": 3962,
      "ĠEnd": 3963,
      "que": 3964,
      "ĠNe": 3965,
      "Ġupd": 3966,
      "ube": 3967,
      "Ġprocesses": 3968,
      "Ġfacilit": 3969,
      "ipping": 3970,
      "Ġfavor": 3971,
      "75": 3972,
      "Qu": 3973,
      "aul": 3974,
      "ken": 3975,
      "Ġice": 3976,
      "Ġsal": 3977,
      "Ġsac": 3978,
      "enge": 3979,
      "Ġhar": 3980,
      "stream": 3981,
      "ĠSince": 3982,
      "ĠAND": 3983,
      "ĠLu": 3984,
      "Ġsea": 3985,
      "ĠUK": 3986,
      "à¤¤": 3987,
      "Ġquant": 3988,
      "reek": 3989,
      "Ġefficient": 3990,
      "Ġattend": 3991,
      "undred": 3992,
      "ĠEduc": 3993,
      "Ġcarried": 3994,
      "Ġchem": 3995,
      "ĠStudent": 3996,
      "Ġchanged": 3997,
      "38": 3998,
      "do": 3999,
      "iance": 4000,
      "la": 4001,
      "hest": 4002,
      "Ġcode": 4003,
      "Ġvia": 4004,
      "ĠFound": 4005,
      "Ġshape": 4006,
      "Ġ2014": 4007,
      "Ġhelped": 4008,
      "Ġinstruction": 4009,
      "Ġsurround": 4010,
      "Ġserved": 4011,
      "Ġinside": 4012,
      "Ġbuildings": 4013,
      "Ġpassed": 4014,
      "ronic": 4015,
      "Ġsafety": 4016,
      "Ġinstitution": 4017,
      "Ġvictims": 4018,
      "Ġversion": 4019,
      "31": 4020,
      "By": 4021,
      "uous": 4022,
      "Ġ:": 4023,
      "Ġcomfort": 4024,
      "aped": 4025,
      "Ġfeature": 4026,
      "Ġemail": 4027,
      "Ġemphas": 4028,
      "Ġshowed": 4029,
      "Ġlearned": 4030,
      "Ġsaying": 4031,
      "Ġturned": 4032,
      "ĠCompany": 4033,
      "Ġmortality": 4034,
      "34": 4035,
      "ped": 4036,
      "Ġ................................................................": 4037,
      "Ġaim": 4038,
      "Ġcra": 4039,
      "ĠGreat": 4040,
      "Ġdecre": 4041,
      "Ġminor": 4042,
      "Ġerosion": 4043,
      "Ġdescribe": 4044,
      "force": 4045,
      "Ġregarding": 4046,
      "AP": 4047,
      "DI": 4048,
      "rans": 4049,
      "uild": 4050,
      "Ø³": 4051,
      "inct": 4052,
      "orks": 4053,
      "Ġbacter": 4054,
      "Ġlibrary": 4055,
      "Ġalthough": 4056,
      "rief": 4057,
      "abeth": 4058,
      "Ġplans": 4059,
      "Ġpretty": 4060,
      "teen": 4061,
      "Ġ2015": 4062,
      "rops": 4063,
      "Ġpractical": 4064,
      "Ġinterests": 4065,
      "example": 4066,
      "Ġstructures": 4067,
      "Ġgirls": 4068,
      "ĠOgden": 4069,
      "bl": 4070,
      "ht": 4071,
      "men": 4072,
      "time": 4073,
      "wood": 4074,
      "Ġcool": 4075,
      "Ġlines": 4076,
      "ĠSim": 4077,
      "ĠMiddle": 4078,
      "Ġconsequ": 4079,
      "Ġweb": 4080,
      "ĠInst": 4081,
      "Ġparty": 4082,
      "Ġstreams": 4083,
      "ĠBlack": 4084,
      "Ġnegative": 4085,
      "Ġorigin": 4086,
      "Ġmedicine": 4087,
      "!!": 4088,
      "36": 4089,
      "Ġwear": 4090,
      "Ġcook": 4091,
      "Ġpiece": 4092,
      "Ġfear": 4093,
      "Ġrise": 4094,
      "Ġspring": 4095
    },
    "merges": [
      [
        "Ġ",
        "t"
      ],
      [
        "Ġ",
        "a"
      ],
      [
        "h",
        "e"
      ],
      [
        "i",
        "n"
      ],
      [
        "r",
        "e"
      ],
      [
        "Ġt",
        "he"
      ],
      [
        "o",
        "n"
      ],
      [
        "e",
        "r"
      ],
      [
        "Ġ",
        "s"
      ],
      [
        "a",
        "t"
      ],
      [
        "Ġ",
        "o"
      ],
      [
        "Ġ",
        "Ġ"
      ],
      [
        "e",
        "n"
      ],
      [
        "Ġ",
        "w"
      ],
      [
        "Ġ",
        "c"
      ],
      [
        "n",
        "d"
      ],
      [
        "e",
        "s"
      ],
      [
        "i",
        "t"
      ],
      [
        "i",
        "s"
      ],
      [
        "o",
        "r"
      ],
      [
        "e",
        "d"
      ],
      [
        "Ġ",
        "p"
      ],
      [
        "in",
        "g"
      ],
      [
        "Ġ",
        "f"
      ],
      [
        "Ġo",
        "f"
      ],
      [
        "Ġ",
        "b"
      ],
      [
        "o",
        "u"
      ],
      [
        "a",
        "l"
      ],
      [
        "a",
        "n"
      ],
      [
        "a",
        "r"
      ],
      [
        "Ġa",
        "nd"
      ],
      [
        "Ġ",
        "in"
      ],
      [
        "Ġt",
        "o"
      ],
      [
        "Ġ",
        "m"
      ],
      [
        "i",
        "on"
      ],
      [
        "Ġ",
        "d"
      ],
      [
        "i",
        "c"
      ],
      [
        "l",
        "e"
      ],
      [
        "ĠĠ",
        "ĠĠ"
      ],
      [
        "Ġ",
        "h"
      ],
      [
        "a",
        "s"
      ],
      [
        "o",
        "m"
      ],
      [
        "Ġt",
        "h"
      ],
      [
        "en",
        "t"
      ],
      [
        "i",
        "l"
      ],
      [
        "Ġ",
        "re"
      ],
      [
        "r",
        "o"
      ],
      [
        "Ġ",
        "e"
      ],
      [
        "v",
        "e"
      ],
      [
        "s",
        "t"
      ],
      [
        "Ġ",
        "l"
      ],
      [
        "c",
        "t"
      ],
      [
        "Ġ",
        "n"
      ],
      [
        "Ġb",
        "e"
      ],
      [
        "Ġ",
        "S"
      ],
      [
        "o",
        "l"
      ],
      [
        "Ġ",
        "T"
      ],
      [
        "â",
        "Ģ"
      ],
      [
        "-",
        "-"
      ],
      [
        "l",
        "y"
      ],
      [
        "Ġ",
        "g"
      ],
      [
        "at",
        "ion"
      ],
      [
        "Ġ",
        "is"
      ],
      [
        "s",
        "e"
      ],
      [
        ".",
        "."
      ],
      [
        "o",
        "t"
      ],
      [
        "i",
        "d"
      ],
      [
        "Ġ",
        "I"
      ],
      [
        "c",
        "h"
      ],
      [
        "r",
        "a"
      ],
      [
        "u",
        "t"
      ],
      [
        "c",
        "e"
      ],
      [
        "Ġ",
        "A"
      ],
      [
        "i",
        "m"
      ],
      [
        "Ġ",
        "C"
      ],
      [
        "Ġs",
        "t"
      ],
      [
        "Ġf",
        "or"
      ],
      [
        "u",
        "r"
      ],
      [
        "o",
        "w"
      ],
      [
        "e",
        "t"
      ],
      [
        "Ġ",
        "y"
      ],
      [
        "Ġth",
        "at"
      ],
      [
        "he",
        "r"
      ],
      [
        "Ġ",
        "on"
      ],
      [
        "Ġ",
        "u"
      ],
      [
        "i",
        "g"
      ],
      [
        "v",
        "er"
      ],
      [
        "i",
        "r"
      ],
      [
        "ĠĠĠĠ",
        "ĠĠĠĠ"
      ],
      [
        "a",
        "m"
      ],
      [
        "e",
        "l"
      ],
      [
        "a",
        "y"
      ],
      [
        "a",
        "d"
      ],
      [
        "Ġ",
        "M"
      ],
      [
        "it",
        "h"
      ],
      [
        "Ġy",
        "ou"
      ],
      [
        "Ġ",
        "1"
      ],
      [
        "u",
        "l"
      ],
      [
        "Ġa",
        "s"
      ],
      [
        "i",
        "f"
      ],
      [
        "Ġw",
        "ith"
      ],
      [
        "t",
        "er"
      ],
      [
        "Ġw",
        "h"
      ],
      [
        "Ġ",
        "P"
      ],
      [
        "Ġ",
        "H"
      ],
      [
        "Ġa",
        "l"
      ],
      [
        "Ġa",
        "n"
      ],
      [
        "Ġ",
        "|"
      ],
      [
        "Ġ",
        "it"
      ],
      [
        "Ġp",
        "ro"
      ],
      [
        "e",
        "m"
      ],
      [
        "Ġa",
        "re"
      ],
      [
        "Ġc",
        "on"
      ],
      [
        "ĠT",
        "he"
      ],
      [
        "o",
        "d"
      ],
      [
        "Ġ",
        "("
      ],
      [
        "Ġo",
        "r"
      ],
      [
        "o",
        "c"
      ],
      [
        "Ġ",
        "B"
      ],
      [
        "r",
        "i"
      ],
      [
        "o",
        "p"
      ],
      [
        "e",
        "re"
      ],
      [
        "g",
        "e"
      ],
      [
        "es",
        "s"
      ],
      [
        "il",
        "l"
      ],
      [
        "Ġw",
        "as"
      ],
      [
        "is",
        "t"
      ],
      [
        "u",
        "d"
      ],
      [
        "a",
        "c"
      ],
      [
        "Ġ",
        "he"
      ],
      [
        "er",
        "s"
      ],
      [
        "at",
        "e"
      ],
      [
        "m",
        "ent"
      ],
      [
        "l",
        "d"
      ],
      [
        "Ġ",
        "W"
      ],
      [
        "it",
        "y"
      ],
      [
        "Ġ",
        "2"
      ],
      [
        "--",
        "--"
      ],
      [
        "Ġe",
        "x"
      ],
      [
        "t",
        "h"
      ],
      [
        "a",
        "b"
      ],
      [
        "Ġc",
        "h"
      ],
      [
        "k",
        "e"
      ],
      [
        "es",
        "t"
      ],
      [
        "..",
        ".."
      ],
      [
        "Ġs",
        "u"
      ],
      [
        "Ġ",
        "R"
      ],
      [
        "n",
        "t"
      ],
      [
        "Ġ",
        "E"
      ],
      [
        "i",
        "es"
      ],
      [
        "Ġc",
        "om"
      ],
      [
        "re",
        "s"
      ],
      [
        "Ġh",
        "a"
      ],
      [
        "Ġ",
        "D"
      ],
      [
        "u",
        "s"
      ],
      [
        "Ġd",
        "e"
      ],
      [
        "p",
        "p"
      ],
      [
        "Ġa",
        "t"
      ],
      [
        "i",
        "ve"
      ],
      [
        "r",
        "om"
      ],
      [
        "u",
        "m"
      ],
      [
        "e",
        "ct"
      ],
      [
        "Ġ",
        "L"
      ],
      [
        "âĢ",
        "Ļ"
      ],
      [
        "q",
        "u"
      ],
      [
        "a",
        "in"
      ],
      [
        "o",
        "s"
      ],
      [
        "Ġ",
        "v"
      ],
      [
        "Ġ",
        "F"
      ],
      [
        "o",
        "re"
      ],
      [
        "i",
        "v"
      ],
      [
        "ig",
        "h"
      ],
      [
        "e",
        "w"
      ],
      [
        "Ġb",
        "y"
      ],
      [
        "or",
        "t"
      ],
      [
        "an",
        "t"
      ],
      [
        "Ġn",
        "ot"
      ],
      [
        "u",
        "st"
      ],
      [
        "a",
        "nd"
      ],
      [
        "u",
        "n"
      ],
      [
        "ar",
        "t"
      ],
      [
        "Ġ",
        "G"
      ],
      [
        "Ġ",
        "le"
      ],
      [
        "Ġ",
        "N"
      ],
      [
        "Ġf",
        "rom"
      ],
      [
        "Ġ",
        "âĢ"
      ],
      [
        "Ġs",
        "e"
      ],
      [
        "u",
        "re"
      ],
      [
        "Ġth",
        "is"
      ],
      [
        "i",
        "al"
      ],
      [
        "r",
        "ou"
      ],
      [
        "Ġ",
        "J"
      ],
      [
        "ou",
        "ld"
      ],
      [
        "g",
        "h"
      ],
      [
        "Ġha",
        "ve"
      ],
      [
        "Ġs",
        "h"
      ],
      [
        "ou",
        "r"
      ],
      [
        "e",
        "ar"
      ],
      [
        "Ġ",
        "r"
      ],
      [
        "Ġa",
        "b"
      ],
      [
        "Ġ",
        "en"
      ],
      [
        "Ġc",
        "an"
      ],
      [
        "Ġ",
        "O"
      ],
      [
        "ar",
        "d"
      ],
      [
        "Ġthe",
        "ir"
      ],
      [
        "om",
        "e"
      ],
      [
        "0",
        "0"
      ],
      [
        "igh",
        "t"
      ],
      [
        "Ġw",
        "or"
      ],
      [
        "ou",
        "t"
      ],
      [
        "Ġs",
        "p"
      ],
      [
        "ic",
        "al"
      ],
      [
        "o",
        "g"
      ],
      [
        "p",
        "er"
      ],
      [
        "Ġthe",
        "y"
      ],
      [
        "ent",
        "s"
      ],
      [
        "a",
        "re"
      ],
      [
        "ion",
        "s"
      ],
      [
        "ĠĠĠĠĠĠĠĠ",
        "ĠĠĠĠĠĠĠĠ"
      ],
      [
        "al",
        "l"
      ],
      [
        "Â",
        "ł"
      ],
      [
        "p",
        "t"
      ],
      [
        "a",
        "g"
      ],
      [
        "ic",
        "h"
      ],
      [
        "'",
        "s"
      ],
      [
        "Ġal",
        "l"
      ],
      [
        "u",
        "c"
      ],
      [
        "il",
        "d"
      ],
      [
        "t",
        "her"
      ],
      [
        "o",
        "st"
      ],
      [
        "Ġp",
        "l"
      ],
      [
        "f",
        "f"
      ],
      [
        "T",
        "he"
      ],
      [
        "e",
        "c"
      ],
      [
        "i",
        "p"
      ],
      [
        "Ġw",
        "e"
      ],
      [
        "Ġst",
        "ud"
      ],
      [
        "at",
        "ed"
      ],
      [
        "Ġyou",
        "r"
      ],
      [
        "Ġw",
        "he"
      ],
      [
        "o",
        "od"
      ],
      [
        "en",
        "d"
      ],
      [
        "Ġa",
        "d"
      ],
      [
        "id",
        "e"
      ],
      [
        "Ġ",
        "im"
      ],
      [
        "Ġin",
        "t"
      ],
      [
        "a",
        "k"
      ],
      [
        "_",
        "_"
      ],
      [
        "Ġw",
        "ere"
      ],
      [
        "ar",
        "y"
      ],
      [
        "ou",
        "s"
      ],
      [
        "el",
        "l"
      ],
      [
        "i",
        "z"
      ],
      [
        "Ġu",
        "s"
      ],
      [
        "ul",
        "t"
      ],
      [
        "as",
        "t"
      ],
      [
        "in",
        "e"
      ],
      [
        "Ġd",
        "o"
      ],
      [
        "Ġn",
        "e"
      ],
      [
        "....",
        "...."
      ],
      [
        "Ġw",
        "ill"
      ],
      [
        "an",
        "s"
      ],
      [
        "Ġ",
        "k"
      ],
      [
        "Ġre",
        "s"
      ],
      [
        "Ġ",
        "U"
      ],
      [
        "ĠI",
        "n"
      ],
      [
        "Ġ",
        "her"
      ],
      [
        "----",
        "----"
      ],
      [
        "Ġt",
        "e"
      ],
      [
        "ve",
        "l"
      ],
      [
        "p",
        "l"
      ],
      [
        "ĠS",
        "t"
      ],
      [
        "c",
        "c"
      ],
      [
        "Ġm",
        "e"
      ],
      [
        "a",
        "u"
      ],
      [
        "Ġwh",
        "ich"
      ],
      [
        "a",
        "ge"
      ],
      [
        "b",
        "er"
      ],
      [
        "o",
        "k"
      ],
      [
        "a",
        "ke"
      ],
      [
        "a",
        "ch"
      ],
      [
        "Ġin",
        "c"
      ],
      [
        "Ġcon",
        "t"
      ],
      [
        "a",
        "p"
      ],
      [
        "Ġb",
        "ut"
      ],
      [
        "an",
        "ce"
      ],
      [
        "a",
        "ct"
      ],
      [
        "Ġm",
        "an"
      ],
      [
        "i",
        "re"
      ],
      [
        "Ġh",
        "as"
      ],
      [
        "ic",
        "e"
      ],
      [
        "à",
        "¤"
      ],
      [
        "Ċ",
        "Ċ"
      ],
      [
        "i",
        "a"
      ],
      [
        "ab",
        "le"
      ],
      [
        "Ġd",
        "is"
      ],
      [
        "s",
        "o"
      ],
      [
        "Ġc",
        "l"
      ],
      [
        "ĠT",
        "h"
      ],
      [
        "or",
        "m"
      ],
      [
        "r",
        "u"
      ],
      [
        "ation",
        "s"
      ],
      [
        "Ġwh",
        "o"
      ],
      [
        "on",
        "g"
      ],
      [
        "Ġon",
        "e"
      ],
      [
        "Ġo",
        "ut"
      ],
      [
        "as",
        "s"
      ],
      [
        "Ġm",
        "ore"
      ],
      [
        "at",
        "er"
      ],
      [
        "Ġab",
        "out"
      ],
      [
        "i",
        "b"
      ],
      [
        "ac",
        "k"
      ],
      [
        "is",
        "h"
      ],
      [
        "u",
        "al"
      ],
      [
        "r",
        "y"
      ],
      [
        "in",
        "d"
      ],
      [
        "Ġo",
        "ther"
      ],
      [
        "ou",
        "nt"
      ],
      [
        "Ġ",
        "j"
      ],
      [
        "i",
        "e"
      ],
      [
        "Ġthe",
        "m"
      ],
      [
        "Ġcom",
        "p"
      ],
      [
        "en",
        "ce"
      ],
      [
        "Ġh",
        "is"
      ],
      [
        "o",
        "ol"
      ],
      [
        "o",
        "se"
      ],
      [
        "Ġal",
        "so"
      ],
      [
        "im",
        "e"
      ],
      [
        "Ġ2",
        "0"
      ],
      [
        "e",
        "p"
      ],
      [
        "Ġs",
        "o"
      ],
      [
        "Ġim",
        "p"
      ],
      [
        "on",
        "e"
      ],
      [
        "Ġ",
        "3"
      ],
      [
        "Ġp",
        "art"
      ],
      [
        "ver",
        "y"
      ],
      [
        "Ġ",
        "\""
      ],
      [
        "Ġu",
        "n"
      ],
      [
        "o",
        "ok"
      ],
      [
        "re",
        "n"
      ],
      [
        "Ġcom",
        "m"
      ],
      [
        "âĢ",
        "Ŀ"
      ],
      [
        "Ġu",
        "p"
      ],
      [
        "Ġh",
        "ad"
      ],
      [
        "it",
        "ion"
      ],
      [
        "Ġch",
        "ild"
      ],
      [
        "Ġy",
        "ear"
      ],
      [
        "ĠC",
        "h"
      ],
      [
        "Ġ1",
        "9"
      ],
      [
        "Ġwor",
        "k"
      ],
      [
        "Ġp",
        "er"
      ],
      [
        "Ġp",
        "e"
      ],
      [
        "am",
        "e"
      ],
      [
        "Ġe",
        "v"
      ],
      [
        "res",
        "s"
      ],
      [
        "Ġa",
        "pp"
      ],
      [
        ")",
        "."
      ],
      [
        "re",
        "at"
      ],
      [
        "i",
        "ke"
      ],
      [
        "n",
        "ing"
      ],
      [
        "or",
        "y"
      ],
      [
        "a",
        "ce"
      ],
      [
        "it",
        "ies"
      ],
      [
        "u",
        "b"
      ],
      [
        "l",
        "ow"
      ],
      [
        "Ġ",
        "qu"
      ],
      [
        "ct",
        "ion"
      ],
      [
        "ig",
        "n"
      ],
      [
        "ch",
        "ool"
      ],
      [
        "Ġthe",
        "re"
      ],
      [
        "an",
        "g"
      ],
      [
        "n",
        "ow"
      ],
      [
        "r",
        "ic"
      ],
      [
        "a",
        "v"
      ],
      [
        "Ġa",
        "r"
      ],
      [
        "Ġ",
        "K"
      ],
      [
        "Ġp",
        "re"
      ],
      [
        "Ġ",
        "Y"
      ],
      [
        "re",
        "e"
      ],
      [
        "Ġs",
        "he"
      ],
      [
        "Ġ",
        "V"
      ],
      [
        "op",
        "le"
      ],
      [
        "Ġstud",
        "ents"
      ],
      [
        "Ġa",
        "g"
      ],
      [
        "as",
        "e"
      ],
      [
        "a",
        "il"
      ],
      [
        "Ġg",
        "o"
      ],
      [
        "u",
        "e"
      ],
      [
        "c",
        "es"
      ],
      [
        "nd",
        "er"
      ],
      [
        "Ġw",
        "ould"
      ],
      [
        "Ġbe",
        "c"
      ],
      [
        "on",
        "s"
      ],
      [
        "Ġt",
        "ime"
      ],
      [
        "it",
        "e"
      ],
      [
        "or",
        "d"
      ],
      [
        "ation",
        "al"
      ],
      [
        "Ġwhe",
        "n"
      ],
      [
        "f",
        "orm"
      ],
      [
        "if",
        "f"
      ],
      [
        "t",
        "e"
      ],
      [
        "Ġs",
        "ome"
      ],
      [
        "on",
        "d"
      ],
      [
        "Ġre",
        "c"
      ],
      [
        "t",
        "s"
      ],
      [
        "en",
        "s"
      ],
      [
        "ra",
        "m"
      ],
      [
        "Ġbe",
        "en"
      ],
      [
        "l",
        "l"
      ],
      [
        "Ġpe",
        "ople"
      ],
      [
        "rou",
        "gh"
      ],
      [
        "i",
        "le"
      ],
      [
        "er",
        "v"
      ],
      [
        "d",
        "u"
      ],
      [
        "ĠâĢ",
        "ľ"
      ],
      [
        "ĠĠ",
        "Ġ"
      ],
      [
        "or",
        "s"
      ],
      [
        "Ġo",
        "ver"
      ],
      [
        "Ġt",
        "ra"
      ],
      [
        "Ġl",
        "ike"
      ],
      [
        "ĠI",
        "t"
      ],
      [
        "ay",
        "s"
      ],
      [
        "*",
        "*"
      ],
      [
        "ing",
        "s"
      ],
      [
        "Ġa",
        "ct"
      ],
      [
        "vel",
        "op"
      ],
      [
        "o",
        "ve"
      ],
      [
        "at",
        "es"
      ],
      [
        "Ġ1",
        "8"
      ],
      [
        "Ġo",
        "ur"
      ],
      [
        "o",
        "v"
      ],
      [
        "Ġu",
        "nder"
      ],
      [
        "Ġh",
        "ow"
      ],
      [
        "k",
        "s"
      ],
      [
        "Ġs",
        "chool"
      ],
      [
        "i",
        "an"
      ],
      [
        "ou",
        "gh"
      ],
      [
        "am",
        "p"
      ],
      [
        "Ġne",
        "ed"
      ],
      [
        "Ġs",
        "a"
      ],
      [
        "Ġc",
        "ol"
      ],
      [
        "Ġint",
        "o"
      ],
      [
        "Ġan",
        "y"
      ],
      [
        "Ġpro",
        "v"
      ],
      [
        "r",
        "it"
      ],
      [
        "Ġth",
        "an"
      ],
      [
        "al",
        "ly"
      ],
      [
        "Ġ",
        "ed"
      ],
      [
        "Ġs",
        "c"
      ],
      [
        "ir",
        "st"
      ],
      [
        "Ġn",
        "o"
      ],
      [
        "Ġwh",
        "at"
      ],
      [
        "Ġm",
        "y"
      ],
      [
        "Ġ",
        "4"
      ],
      [
        "Ġ",
        "ro"
      ],
      [
        "l",
        "ic"
      ],
      [
        "Ġthe",
        "se"
      ],
      [
        "Ġt",
        "w"
      ],
      [
        "Ġ",
        "if"
      ],
      [
        "Ġd",
        "iff"
      ],
      [
        "au",
        "se"
      ],
      [
        "ĠH",
        "e"
      ],
      [
        "__",
        "__"
      ],
      [
        "ĠTh",
        "is"
      ],
      [
        "ou",
        "nd"
      ],
      [
        "at",
        "ing"
      ],
      [
        "Ġk",
        "now"
      ],
      [
        "Ġu",
        "se"
      ],
      [
        "ver",
        "s"
      ],
      [
        "Ġa",
        "cc"
      ],
      [
        "i",
        "ous"
      ],
      [
        "j",
        "ect"
      ],
      [
        "m",
        "er"
      ],
      [
        "Ġit",
        "s"
      ],
      [
        "Ġre",
        "l"
      ],
      [
        "l",
        "ud"
      ],
      [
        "Ġcon",
        "s"
      ],
      [
        "w",
        "e"
      ],
      [
        "Ġbe",
        "t"
      ],
      [
        "Ġd",
        "es"
      ],
      [
        "p",
        "h"
      ],
      [
        "Ġm",
        "ay"
      ],
      [
        "Ġ",
        "-"
      ],
      [
        "n",
        "g"
      ],
      [
        "Ġ",
        "ra"
      ],
      [
        "Ġre",
        "p"
      ],
      [
        "Ġof",
        "f"
      ],
      [
        "Ġs",
        "y"
      ],
      [
        "uc",
        "ation"
      ],
      [
        "in",
        "k"
      ],
      [
        "Ġin",
        "d"
      ],
      [
        "........",
        "........"
      ],
      [
        "at",
        "h"
      ],
      [
        "ment",
        "s"
      ],
      [
        "at",
        "ive"
      ],
      [
        "Ġn",
        "ew"
      ],
      [
        "Ġle",
        "ar"
      ],
      [
        "Ġde",
        "velop"
      ],
      [
        "l",
        "es"
      ],
      [
        "Ġchild",
        "ren"
      ],
      [
        "Ġin",
        "ter"
      ],
      [
        "if",
        "ic"
      ],
      [
        "2",
        "0"
      ],
      [
        "Ġth",
        "rough"
      ],
      [
        "ĠâĢ",
        "ĵ"
      ],
      [
        "os",
        "s"
      ],
      [
        "w",
        "n"
      ],
      [
        "rou",
        "nd"
      ],
      [
        "Ġman",
        "y"
      ],
      [
        "ĠH",
        "ol"
      ],
      [
        "is",
        "m"
      ],
      [
        "le",
        "ct"
      ],
      [
        "i",
        "ed"
      ],
      [
        "if",
        "e"
      ],
      [
        "a",
        "ust"
      ],
      [
        "o",
        "b"
      ],
      [
        "t",
        "ed"
      ],
      [
        "Ġt",
        "r"
      ],
      [
        "he",
        "d"
      ],
      [
        "n",
        "e"
      ],
      [
        "ra",
        "ct"
      ],
      [
        "Ġ20",
        "1"
      ],
      [
        "ro",
        "p"
      ],
      [
        "Ġ",
        "5"
      ],
      [
        "Ġsh",
        "ould"
      ],
      [
        "Ġre",
        "g"
      ],
      [
        "er",
        "m"
      ],
      [
        "Ġf",
        "irst"
      ],
      [
        "f",
        "ter"
      ],
      [
        "Ġyear",
        "s"
      ],
      [
        "l",
        "p"
      ],
      [
        "ol",
        "og"
      ],
      [
        "Ġm",
        "ost"
      ],
      [
        "Ġa",
        "m"
      ],
      [
        "oc",
        "aust"
      ],
      [
        "ot",
        "her"
      ],
      [
        "Ġa",
        "c"
      ],
      [
        "Ġon",
        "ly"
      ],
      [
        "i",
        "et"
      ],
      [
        "x",
        "t"
      ],
      [
        "is",
        "s"
      ],
      [
        "Ġf",
        "e"
      ],
      [
        "Ġsu",
        "ch"
      ],
      [
        "y",
        "s"
      ],
      [
        "re",
        "d"
      ],
      [
        "Ġas",
        "s"
      ],
      [
        "Ġg",
        "et"
      ],
      [
        "is",
        "e"
      ],
      [
        "Ġinc",
        "lud"
      ],
      [
        "Âł",
        "Âł"
      ],
      [
        "f",
        "ul"
      ],
      [
        "Ġhe",
        "lp"
      ],
      [
        "al",
        "th"
      ],
      [
        "a",
        "h"
      ],
      [
        "il",
        "y"
      ],
      [
        "g",
        "ram"
      ],
      [
        "Ġ2",
        "00"
      ],
      [
        "Ġb",
        "l"
      ],
      [
        "pp",
        "ort"
      ],
      [
        ")",
        ","
      ],
      [
        "Ġe",
        "ff"
      ],
      [
        "se",
        "l"
      ],
      [
        "st",
        "em"
      ],
      [
        "Ġtw",
        "o"
      ],
      [
        "ri",
        "b"
      ],
      [
        "ĠHol",
        "ocaust"
      ],
      [
        "i",
        "ew"
      ],
      [
        "Ġe",
        "m"
      ],
      [
        "--------",
        "--------"
      ],
      [
        "ar",
        "ch"
      ],
      [
        "en",
        "er"
      ],
      [
        "he",
        "n"
      ],
      [
        "Ġw",
        "ell"
      ],
      [
        "'",
        "t"
      ],
      [
        "Ġwhe",
        "re"
      ],
      [
        "g",
        "an"
      ],
      [
        "o",
        "in"
      ],
      [
        "ad",
        "e"
      ],
      [
        "Ġdis",
        "c"
      ],
      [
        "ar",
        "k"
      ],
      [
        "Ġc",
        "ould"
      ],
      [
        "Ġdiff",
        "ere"
      ],
      [
        "Ġat",
        "t"
      ],
      [
        "il",
        "ity"
      ],
      [
        "Ġp",
        "ol"
      ],
      [
        "ur",
        "ing"
      ],
      [
        "ĠĠĠĠĠĠĠĠĠĠĠĠĠĠĠĠ",
        "ĠĠĠĠĠĠĠĠĠĠĠĠĠĠĠĠ"
      ],
      [
        "om",
        "m"
      ],
      [
        "Ġex",
        "p"
      ],
      [
        "Ġad",
        "d"
      ],
      [
        "ĠS",
        "he"
      ],
      [
        "et",
        "h"
      ],
      [
        "ot",
        "h"
      ],
      [
        "id",
        "ent"
      ],
      [
        "rou",
        "p"
      ],
      [
        "Ġus",
        "ed"
      ],
      [
        "ul",
        "ar"
      ],
      [
        "Ġre",
        "m"
      ],
      [
        "t",
        "ing"
      ],
      [
        "ere",
        "d"
      ],
      [
        "s",
        "s"
      ],
      [
        "ur",
        "al"
      ],
      [
        "Ġs",
        "oc"
      ],
      [
        "as",
        "ed"
      ],
      [
        "Ġsu",
        "b"
      ],
      [
        "g",
        "et"
      ],
      [
        "ow",
        "n"
      ],
      [
        "ĠR",
        "e"
      ],
      [
        "ac",
        "her"
      ],
      [
        "Ġres",
        "p"
      ],
      [
        "ib",
        "le"
      ],
      [
        "Ġex",
        "per"
      ],
      [
        "t",
        "en"
      ],
      [
        "Ġf",
        "l"
      ],
      [
        "ic",
        "s"
      ],
      [
        "ol",
        "d"
      ],
      [
        "Ġo",
        "b"
      ],
      [
        "ro",
        "w"
      ],
      [
        "Ġsp",
        "ec"
      ],
      [
        "Ġe",
        "ar"
      ],
      [
        "ĠW",
        "h"
      ],
      [
        "Ġcomm",
        "un"
      ],
      [
        "ĠP",
        "ro"
      ],
      [
        "Ġf",
        "am"
      ],
      [
        "b",
        "le"
      ],
      [
        "Ġ",
        "6"
      ],
      [
        "Ġbec",
        "ause"
      ],
      [
        "Ġp",
        "res"
      ],
      [
        "ic",
        "t"
      ],
      [
        "Ġcl",
        "ass"
      ],
      [
        "u",
        "res"
      ],
      [
        "re",
        "am"
      ],
      [
        "ow",
        "er"
      ],
      [
        "ĠU",
        "n"
      ],
      [
        "Ġj",
        "ust"
      ],
      [
        "u",
        "ch"
      ],
      [
        "n",
        "ess"
      ],
      [
        "ic",
        "k"
      ],
      [
        "Ġb",
        "u"
      ],
      [
        "Ġre",
        "ad"
      ],
      [
        "i",
        "ent"
      ],
      [
        "Ġsy",
        "stem"
      ],
      [
        "ter",
        "s"
      ],
      [
        "ut",
        "ion"
      ],
      [
        "Ġin",
        "st"
      ],
      [
        "Ġh",
        "im"
      ],
      [
        "we",
        "en"
      ],
      [
        "Ġe",
        "very"
      ],
      [
        "f",
        "ore"
      ],
      [
        "Ġc",
        "ount"
      ],
      [
        "Ġm",
        "ake"
      ],
      [
        "t",
        "ain"
      ],
      [
        "Ġde",
        "c"
      ],
      [
        "c",
        "y"
      ],
      [
        "Ġp",
        "h"
      ],
      [
        "Ġbe",
        "ing"
      ],
      [
        "c",
        "ess"
      ],
      [
        "al",
        "s"
      ],
      [
        "he",
        "s"
      ],
      [
        "ur",
        "n"
      ],
      [
        "Ġa",
        "fter"
      ],
      [
        "at",
        "her"
      ],
      [
        "h",
        "ip"
      ],
      [
        "Ġthe",
        "n"
      ],
      [
        "Ġw",
        "ater"
      ],
      [
        "Ġfor",
        "m"
      ],
      [
        "l",
        "ed"
      ],
      [
        "Ġre",
        "f"
      ],
      [
        "Ġg",
        "ra"
      ],
      [
        "i",
        "ence"
      ],
      [
        "I",
        "n"
      ],
      [
        "Ġ",
        "7"
      ],
      [
        "Ġh",
        "igh"
      ],
      [
        "Ġw",
        "ay"
      ],
      [
        "Ġin",
        "v"
      ],
      [
        "Ġpro",
        "gram"
      ],
      [
        "Ġsa",
        "id"
      ],
      [
        "ter",
        "n"
      ],
      [
        "Ġbet",
        "ween"
      ],
      [
        "it",
        "ed"
      ],
      [
        "o",
        "y"
      ],
      [
        "Ġs",
        "ur"
      ],
      [
        "y",
        "p"
      ],
      [
        "ce",
        "pt"
      ],
      [
        "Ġc",
        "ur"
      ],
      [
        "ic",
        "es"
      ],
      [
        "it",
        "s"
      ],
      [
        "Ġpart",
        "ic"
      ],
      [
        "Ġimp",
        "ort"
      ],
      [
        "ub",
        "lic"
      ],
      [
        "form",
        "ation"
      ],
      [
        "Ġ",
        "ke"
      ],
      [
        "an",
        "ge"
      ],
      [
        "Ġl",
        "oc"
      ],
      [
        "u",
        "es"
      ],
      [
        "amp",
        "le"
      ],
      [
        "ol",
        "low"
      ],
      [
        "or",
        "k"
      ],
      [
        "or",
        "n"
      ],
      [
        "e",
        "ver"
      ],
      [
        "Ġ",
        "very"
      ],
      [
        "Ġb",
        "ack"
      ],
      [
        "u",
        "p"
      ],
      [
        "Ġse",
        "e"
      ],
      [
        "Ġl",
        "ife"
      ],
      [
        "f",
        "t"
      ],
      [
        "Ġm",
        "em"
      ],
      [
        "Ġdiffere",
        "nt"
      ],
      [
        "o",
        "h"
      ],
      [
        "on",
        "t"
      ],
      [
        "Ġl",
        "it"
      ],
      [
        "Ġe",
        "ach"
      ],
      [
        "d",
        "e"
      ],
      [
        "ĠY",
        "ou"
      ],
      [
        "Ġinc",
        "re"
      ],
      [
        "Ġth",
        "ose"
      ],
      [
        "Ġs",
        "et"
      ],
      [
        "Ġse",
        "c"
      ],
      [
        "a",
        "w"
      ],
      [
        "Ġp",
        "ers"
      ],
      [
        "Ġg",
        "ood"
      ],
      [
        "Ġed",
        "ucation"
      ],
      [
        "1",
        "9"
      ],
      [
        "Ġev",
        "en"
      ],
      [
        "Ġn",
        "um"
      ],
      [
        "at",
        "ure"
      ],
      [
        "Ġ1",
        "0"
      ],
      [
        "Ġh",
        "ist"
      ],
      [
        "iv",
        "es"
      ],
      [
        "u",
        "nd"
      ],
      [
        "Ġd",
        "id"
      ],
      [
        "Ġs",
        "k"
      ],
      [
        "âĢ",
        "Ķ"
      ],
      [
        "Ġin",
        "f"
      ],
      [
        "em",
        "ent"
      ],
      [
        "Ġp",
        "r"
      ],
      [
        "ak",
        "ing"
      ],
      [
        "au",
        "gh"
      ],
      [
        "Ġm",
        "ade"
      ],
      [
        "ĠA",
        "n"
      ],
      [
        "T",
        "h"
      ],
      [
        "Ġdo",
        "es"
      ],
      [
        "ĠS",
        "e"
      ],
      [
        "at",
        "a"
      ],
      [
        "ĠW",
        "e"
      ],
      [
        "Ġg",
        "roup"
      ],
      [
        "t",
        "t"
      ],
      [
        "ard",
        "s"
      ],
      [
        "Ġs",
        "erv"
      ],
      [
        "ant",
        "s"
      ],
      [
        "Ġtr",
        "ans"
      ],
      [
        "Ġo",
        "wn"
      ],
      [
        "v",
        "en"
      ],
      [
        "an",
        "c"
      ],
      [
        "ĠE",
        "d"
      ],
      [
        "Ġf",
        "ollow"
      ],
      [
        "us",
        "s"
      ],
      [
        "Ġ",
        "ent"
      ],
      [
        "o",
        "ver"
      ],
      [
        "iz",
        "ed"
      ],
      [
        "Ġag",
        "ain"
      ],
      [
        "ĠA",
        "l"
      ],
      [
        "Ġs",
        "m"
      ],
      [
        "Ġprov",
        "id"
      ],
      [
        "Ġte",
        "acher"
      ],
      [
        "g",
        "y"
      ],
      [
        "i",
        "x"
      ],
      [
        "Ġm",
        "uch"
      ],
      [
        "a",
        "ir"
      ],
      [
        "Ġc",
        "ar"
      ],
      [
        "l",
        "and"
      ],
      [
        "Ġ",
        "9"
      ],
      [
        "Ġm",
        "on"
      ],
      [
        "ual",
        "ly"
      ],
      [
        "Ġh",
        "ome"
      ],
      [
        "i",
        "vers"
      ],
      [
        "st",
        "and"
      ],
      [
        "Ġr",
        "ight"
      ],
      [
        "Ġc",
        "our"
      ],
      [
        "ical",
        "ly"
      ],
      [
        "Ġde",
        "f"
      ],
      [
        "à",
        "¥"
      ],
      [
        "Ġl",
        "ong"
      ],
      [
        "ĠThe",
        "y"
      ],
      [
        "Ġd",
        "ay"
      ],
      [
        "Ġm",
        "in"
      ],
      [
        "Ġn",
        "ow"
      ],
      [
        "Ġre",
        "qu"
      ],
      [
        "Ġg",
        "u"
      ],
      [
        "Ġex",
        "t"
      ],
      [
        "Ġwor",
        "ld"
      ],
      [
        "v",
        "iew"
      ],
      [
        "an",
        "y"
      ],
      [
        "Ġc",
        "all"
      ],
      [
        "Ġsu",
        "pport"
      ],
      [
        "Ġlear",
        "ning"
      ],
      [
        "Ġre",
        "se"
      ],
      [
        "Ġg",
        "ener"
      ],
      [
        "Ġpro",
        "cess"
      ],
      [
        "v",
        "ed"
      ],
      [
        "Ġ",
        "8"
      ],
      [
        "ut",
        "h"
      ],
      [
        "in",
        "es"
      ],
      [
        "Ġth",
        "ink"
      ],
      [
        "Ġl",
        "ook"
      ],
      [
        "Ġhe",
        "alth"
      ],
      [
        "i",
        "el"
      ],
      [
        "Ġ",
        "à¤"
      ],
      [
        "im",
        "es"
      ],
      [
        "ĠS",
        "p"
      ],
      [
        "Ġm",
        "od"
      ],
      [
        "are",
        "nt"
      ],
      [
        "v",
        "ent"
      ],
      [
        "Ġin",
        "s"
      ],
      [
        "Ġl",
        "ar"
      ],
      [
        "in",
        "ce"
      ],
      [
        "Ġm",
        "ed"
      ],
      [
        "e",
        "f"
      ],
      [
        "d",
        "er"
      ],
      [
        "Ġst",
        "r"
      ],
      [
        "Ġw",
        "om"
      ],
      [
        "Ġor",
        "gan"
      ],
      [
        "Ġde",
        "p"
      ],
      [
        "Ġar",
        "t"
      ],
      [
        "ĠJ",
        "ew"
      ],
      [
        "iet",
        "y"
      ],
      [
        "t",
        "he"
      ],
      [
        "Ġh",
        "um"
      ],
      [
        "ĠA",
        "s"
      ],
      [
        "ir",
        "on"
      ],
      [
        "du",
        "ct"
      ],
      [
        "Ġa",
        "w"
      ],
      [
        ".",
        "\""
      ],
      [
        "Ċ",
        "Ġ"
      ],
      [
        "Ġbe",
        "l"
      ],
      [
        "i",
        "en"
      ],
      [
        "ou",
        "n"
      ],
      [
        "Ġt",
        "ake"
      ],
      [
        "Ġd",
        "et"
      ],
      [
        "Ġeff",
        "ect"
      ],
      [
        "Ġin",
        "formation"
      ],
      [
        "Ġqu",
        "est"
      ],
      [
        "Ġth",
        "ree"
      ],
      [
        "Ġb",
        "oth"
      ],
      [
        "Ġsh",
        "ow"
      ],
      [
        "t",
        "le"
      ],
      [
        "w",
        "w"
      ],
      [
        "Ġch",
        "ar"
      ],
      [
        "Ġimport",
        "ant"
      ],
      [
        "a",
        "x"
      ],
      [
        "mer",
        "ic"
      ],
      [
        "Ġex",
        "ample"
      ],
      [
        "Ġle",
        "vel"
      ],
      [
        "Ġd",
        "uring"
      ],
      [
        "ĠĠĠĠĠĠĠĠ",
        "ĠĠĠĠ"
      ],
      [
        "Ġen",
        "d"
      ],
      [
        ".",
        ","
      ],
      [
        "Ġs",
        "ame"
      ],
      [
        "Ġa",
        "v"
      ],
      [
        "Ġw",
        "ant"
      ],
      [
        "Ġ",
        "0"
      ],
      [
        "in",
        "c"
      ],
      [
        "ag",
        "es"
      ],
      [
        "ĠH",
        "ow"
      ],
      [
        "Ġres",
        "ult"
      ],
      [
        "Ġp",
        "ract"
      ],
      [
        "v",
        "ing"
      ],
      [
        "oc",
        "k"
      ],
      [
        "____",
        "____"
      ],
      [
        "ar",
        "s"
      ],
      [
        "Ġcon",
        "c"
      ],
      [
        "Ġb",
        "o"
      ],
      [
        "ak",
        "es"
      ],
      [
        "Ġf",
        "ind"
      ],
      [
        "ĠS",
        "h"
      ],
      [
        "Ġv",
        "al"
      ],
      [
        "ru",
        "ct"
      ],
      [
        "ĠâĢ",
        "ĺ"
      ],
      [
        "Ġex",
        "pl"
      ],
      [
        "W",
        "h"
      ],
      [
        "Ġg",
        "reat"
      ],
      [
        "ch",
        "n"
      ],
      [
        "Ġo",
        "p"
      ],
      [
        "iz",
        "e"
      ],
      [
        "sel",
        "f"
      ],
      [
        "iel",
        "d"
      ],
      [
        "t",
        "y"
      ],
      [
        "ĠI",
        "f"
      ],
      [
        "Ġm",
        "ain"
      ],
      [
        "Ġwh",
        "ile"
      ],
      [
        "er",
        "n"
      ],
      [
        "g",
        "g"
      ],
      [
        "od",
        "y"
      ],
      [
        "Ġcon",
        "f"
      ],
      [
        "ro",
        "l"
      ],
      [
        "it",
        "al"
      ],
      [
        "Ġv",
        "ar"
      ],
      [
        "ble",
        "m"
      ],
      [
        "Ġc",
        "re"
      ],
      [
        "Ġbe",
        "fore"
      ],
      [
        "on",
        "om"
      ],
      [
        "Ġs",
        "im"
      ],
      [
        "Ġf",
        "ound"
      ],
      [
        "Ġha",
        "nd"
      ],
      [
        "Ġh",
        "om"
      ],
      [
        "Ġd",
        "ata"
      ],
      [
        "Ġc",
        "ent"
      ],
      [
        "Ġd",
        "own"
      ],
      [
        "om",
        "p"
      ],
      [
        "ĠA",
        "meric"
      ],
      [
        "ur",
        "ch"
      ],
      [
        "ĠF",
        "or"
      ],
      [
        "Ġst",
        "ream"
      ],
      [
        "iv",
        "ing"
      ],
      [
        "i",
        "er"
      ],
      [
        "Ġs",
        "ign"
      ],
      [
        "n",
        "er"
      ],
      [
        "âĢ",
        "ĵ"
      ],
      [
        "Ġpl",
        "ay"
      ],
      [
        "Ġunder",
        "stand"
      ],
      [
        "al",
        "k"
      ],
      [
        "Ġ1",
        "2"
      ],
      [
        "Ġstud",
        "y"
      ],
      [
        "ist",
        "s"
      ],
      [
        "d",
        "ay"
      ],
      [
        "Ġp",
        "os"
      ],
      [
        "Ġ",
        "*"
      ],
      [
        "re",
        "ad"
      ],
      [
        "Ġb",
        "ook"
      ],
      [
        "Ġc",
        "are"
      ],
      [
        "ect",
        "ion"
      ],
      [
        "Ġpers",
        "on"
      ],
      [
        "Ġ",
        "&"
      ],
      [
        "ri",
        "ed"
      ],
      [
        "Ġfam",
        "ily"
      ],
      [
        "Ġv",
        "is"
      ],
      [
        "c",
        "k"
      ],
      [
        "v",
        "es"
      ],
      [
        "Ġis",
        "s"
      ],
      [
        "Ġle",
        "ad"
      ],
      [
        "Ġs",
        "om"
      ],
      [
        "ĠN",
        "ew"
      ],
      [
        "Ġact",
        "iv"
      ],
      [
        "Ġf",
        "act"
      ],
      [
        "Ġpl",
        "ace"
      ],
      [
        "in",
        "ing"
      ],
      [
        "Ġp",
        "oss"
      ],
      [
        "v",
        "iron"
      ],
      [
        "ire",
        "ct"
      ],
      [
        "in",
        "s"
      ],
      [
        "Ġb",
        "r"
      ],
      [
        "al",
        "ity"
      ],
      [
        "b",
        "ers"
      ],
      [
        "m",
        "an"
      ],
      [
        "ou",
        "se"
      ],
      [
        "an",
        "k"
      ],
      [
        "Ġth",
        "ough"
      ],
      [
        "ĠA",
        "nd"
      ],
      [
        "i",
        "o"
      ],
      [
        "Ġpro",
        "blem"
      ],
      [
        "Ġa",
        "round"
      ],
      [
        "Ġdevelop",
        "ment"
      ],
      [
        "n",
        "ce"
      ],
      [
        "Ġd",
        "ist"
      ],
      [
        "are",
        "d"
      ],
      [
        "d",
        "uc"
      ],
      [
        "Ġp",
        "ower"
      ],
      [
        "ĠT",
        "e"
      ],
      [
        "a",
        "ve"
      ],
      [
        "Ġapp",
        "ro"
      ],
      [
        "iv",
        "id"
      ],
      [
        "ĠD",
        "e"
      ],
      [
        "a",
        "j"
      ],
      [
        "Ġbu",
        "ild"
      ],
      [
        "Ġd",
        "on"
      ],
      [
        "Ġc",
        "ult"
      ],
      [
        "re",
        "nt"
      ],
      [
        "ĠC",
        "omm"
      ],
      [
        "Ġp",
        "ublic"
      ],
      [
        "olog",
        "y"
      ],
      [
        "Ġre",
        "t"
      ],
      [
        "Ġcons",
        "id"
      ],
      [
        "ar",
        "m"
      ],
      [
        "m",
        "e"
      ],
      [
        "20",
        "1"
      ],
      [
        "Ġpl",
        "an"
      ],
      [
        "a",
        "z"
      ],
      [
        "Ġw",
        "rit"
      ],
      [
        "at",
        "ch"
      ],
      [
        "ut",
        "e"
      ],
      [
        "Ġrep",
        "ort"
      ],
      [
        "ion",
        "al"
      ],
      [
        "I",
        "I"
      ],
      [
        "Ġp",
        "oin"
      ],
      [
        "Ġcomp",
        "le"
      ],
      [
        "en",
        "g"
      ],
      [
        "Ġf",
        "ood"
      ],
      [
        "Ġan",
        "t"
      ],
      [
        "................",
        "................"
      ],
      [
        "Ġnum",
        "ber"
      ],
      [
        "ere",
        "st"
      ],
      [
        "c",
        "ed"
      ],
      [
        "ĠA",
        "r"
      ],
      [
        "Ġs",
        "er"
      ],
      [
        "Ġst",
        "art"
      ],
      [
        "Ġs",
        "ol"
      ],
      [
        "Ġwith",
        "in"
      ],
      [
        "Ġ",
        "est"
      ],
      [
        "Ġof",
        "ten"
      ],
      [
        "Ġo",
        "cc"
      ],
      [
        "Ġc",
        "o"
      ],
      [
        "ĠL",
        "e"
      ],
      [
        "00",
        "0"
      ],
      [
        "Ġus",
        "ing"
      ],
      [
        "ro",
        "ss"
      ],
      [
        "Ġg",
        "l"
      ],
      [
        "Ø",
        "§"
      ],
      [
        "Ġl",
        "ess"
      ],
      [
        "Ġbel",
        "ie"
      ],
      [
        "1",
        "0"
      ],
      [
        "Ġl",
        "and"
      ],
      [
        "as",
        "es"
      ],
      [
        "ul",
        "l"
      ],
      [
        "Ġc",
        "le"
      ],
      [
        "Ġf",
        "in"
      ],
      [
        "Ġm",
        "ust"
      ],
      [
        "our",
        "ces"
      ],
      [
        "r",
        "al"
      ],
      [
        "Ġst",
        "ill"
      ],
      [
        "ĠI",
        "nd"
      ],
      [
        "ang",
        "u"
      ],
      [
        "Ġsoc",
        "ial"
      ],
      [
        "viron",
        "ment"
      ],
      [
        "Ġlear",
        "n"
      ],
      [
        "Ġad",
        "v"
      ],
      [
        "er",
        "ing"
      ],
      [
        "el",
        "ess"
      ],
      [
        "Ġear",
        "ly"
      ],
      [
        "al",
        "t"
      ],
      [
        "Ġcont",
        "in"
      ],
      [
        "Ġ",
        "ide"
      ],
      [
        "..",
        "."
      ],
      [
        "Ġpro",
        "ject"
      ],
      [
        "ĠThe",
        "re"
      ],
      [
        "Ġrese",
        "arch"
      ],
      [
        "p",
        "r"
      ],
      [
        "Ġo",
        "ld"
      ],
      [
        "Ġstud",
        "ent"
      ],
      [
        "en",
        "se"
      ],
      [
        "Ġall",
        "ow"
      ],
      [
        "in",
        "ed"
      ],
      [
        "Ġcol",
        "le"
      ],
      [
        "Ġhist",
        "ory"
      ],
      [
        "Ġp",
        "op"
      ],
      [
        ".",
        "âĢĿ"
      ],
      [
        "r",
        "s"
      ],
      [
        "et",
        "s"
      ],
      [
        "Ġ",
        "'"
      ],
      [
        "ĠS",
        "c"
      ],
      [
        "ect",
        "ed"
      ],
      [
        "Ġt",
        "yp"
      ],
      [
        "Ġb",
        "est"
      ],
      [
        "Ġd",
        "i"
      ],
      [
        "Ġl",
        "ist"
      ],
      [
        "Ġte",
        "chn"
      ],
      [
        "Ġfe",
        "el"
      ],
      [
        "is",
        "hed"
      ],
      [
        "ĠB",
        "ut"
      ],
      [
        "ri",
        "es"
      ],
      [
        "ire",
        "d"
      ],
      [
        "-",
        "|"
      ],
      [
        "Ġs",
        "it"
      ],
      [
        "it",
        "ive"
      ],
      [
        "is",
        "ed"
      ],
      [
        "is",
        "ter"
      ],
      [
        "Ġp",
        "arent"
      ],
      [
        "Ġgo",
        "ver"
      ],
      [
        "Ġt",
        "est"
      ],
      [
        "Ġc",
        "he"
      ],
      [
        "ach",
        "ing"
      ],
      [
        "Ġp",
        "ri"
      ],
      [
        "Ġint",
        "erest"
      ],
      [
        "c",
        "om"
      ],
      [
        "Ġm",
        "ar"
      ],
      [
        "Ġm",
        "ov"
      ],
      [
        "t",
        "on"
      ],
      [
        "as",
        "on"
      ],
      [
        "Ġe",
        "c"
      ],
      [
        "ĠA",
        "d"
      ],
      [
        "Ġprov",
        "ide"
      ],
      [
        "Ġsec",
        "ond"
      ],
      [
        "Ġto",
        "p"
      ],
      [
        "ĠC",
        "on"
      ],
      [
        "ial",
        "ly"
      ],
      [
        "Ġinclud",
        "ing"
      ],
      [
        "ill",
        "s"
      ],
      [
        "ÂłÂł",
        "ÂłÂł"
      ],
      [
        "E",
        "R"
      ],
      [
        "ĠP",
        "l"
      ],
      [
        "ĠI",
        "s"
      ],
      [
        "Ġgover",
        "n"
      ],
      [
        "Ġdes",
        "c"
      ],
      [
        "ivers",
        "ity"
      ],
      [
        "Ġc",
        "a"
      ],
      [
        "Ġch",
        "o"
      ],
      [
        "ĠâĢ",
        "¢"
      ],
      [
        "Th",
        "is"
      ],
      [
        "it",
        "ions"
      ],
      [
        "oh",
        "n"
      ],
      [
        "Ġm",
        "ight"
      ],
      [
        "as",
        "h"
      ],
      [
        "Ġpro",
        "t"
      ],
      [
        "Ġst",
        "ate"
      ],
      [
        "act",
        "er"
      ],
      [
        "Ġf",
        "un"
      ],
      [
        "ĠE",
        "u"
      ],
      [
        "Ġpres",
        "ent"
      ],
      [
        "iv",
        "en"
      ],
      [
        "w",
        "ays"
      ],
      [
        "Ġsm",
        "all"
      ],
      [
        "Ġc",
        "r"
      ],
      [
        "e",
        "g"
      ],
      [
        "Ġas",
        "k"
      ],
      [
        "Ġs",
        "ay"
      ],
      [
        "Ġc",
        "ap"
      ],
      [
        "oc",
        "us"
      ],
      [
        "Ġwor",
        "d"
      ],
      [
        "r",
        "ist"
      ],
      [
        "Ġ",
        "ident"
      ],
      [
        "Ġ1",
        "5"
      ],
      [
        "Ġd",
        "em"
      ],
      [
        "le",
        "y"
      ],
      [
        "Ġe",
        "qu"
      ],
      [
        "ri",
        "pt"
      ],
      [
        "Ġm",
        "other"
      ],
      [
        "g",
        "ed"
      ],
      [
        "Ġg",
        "row"
      ],
      [
        "ĊĊ",
        "ĠĠĠ"
      ],
      [
        "it",
        "her"
      ],
      [
        "ĠT",
        "o"
      ],
      [
        "2",
        "2"
      ],
      [
        "Ġ",
        "$"
      ],
      [
        "Ġst",
        "and"
      ],
      [
        "ĠC",
        "l"
      ],
      [
        "Ġloc",
        "al"
      ],
      [
        "Ġlar",
        "ge"
      ],
      [
        "p",
        "le"
      ],
      [
        "an",
        "n"
      ],
      [
        "ot",
        "e"
      ],
      [
        "Ġdisc",
        "uss"
      ],
      [
        "Ġa",
        "ff"
      ],
      [
        "al",
        "e"
      ],
      [
        "Ġ1",
        "1"
      ],
      [
        "ate",
        "ly"
      ],
      [
        "iv",
        "ed"
      ],
      [
        "rop",
        "e"
      ],
      [
        "Ġop",
        "en"
      ],
      [
        "Ġhum",
        "an"
      ],
      [
        "ĠC",
        "ount"
      ],
      [
        "er",
        "c"
      ],
      [
        "Ġf",
        "ew"
      ],
      [
        "s",
        "c"
      ],
      [
        "ĠR",
        "es"
      ],
      [
        "Ġwith",
        "out"
      ],
      [
        "ĠG",
        "od"
      ],
      [
        "cc",
        "ess"
      ],
      [
        "Ġyou",
        "ng"
      ],
      [
        "Ġp",
        "rom"
      ],
      [
        "Ġt",
        "erm"
      ],
      [
        "Ġu",
        "nt"
      ],
      [
        "iss",
        "ion"
      ],
      [
        "Ġresp",
        "ons"
      ],
      [
        "s",
        "p"
      ],
      [
        "l",
        "ish"
      ],
      [
        "Ġp",
        "at"
      ],
      [
        "Ġl",
        "ast"
      ],
      [
        "e",
        "x"
      ],
      [
        "ra",
        "ph"
      ],
      [
        "Ġcommun",
        "ity"
      ],
      [
        "l",
        "ess"
      ],
      [
        "ĠSt",
        "ud"
      ],
      [
        "ĠC",
        "ol"
      ],
      [
        "Ġp",
        "ass"
      ],
      [
        "ag",
        "ement"
      ],
      [
        "angu",
        "age"
      ],
      [
        "/",
        "/"
      ],
      [
        "Ġwom",
        "en"
      ],
      [
        "O",
        "N"
      ],
      [
        "i",
        "qu"
      ],
      [
        "oc",
        "i"
      ],
      [
        "o",
        "on"
      ],
      [
        "Ġdes",
        "ign"
      ],
      [
        "Ġsp",
        "e"
      ],
      [
        "Ġf",
        "our"
      ],
      [
        "if",
        "ied"
      ],
      [
        "ivid",
        "ual"
      ],
      [
        "Ġth",
        "ings"
      ],
      [
        "Ġor",
        "der"
      ],
      [
        "Ġch",
        "ang"
      ],
      [
        "Ġcont",
        "rol"
      ],
      [
        "l",
        "ing"
      ],
      [
        "Ġbe",
        "h"
      ],
      [
        "ĠThe",
        "se"
      ],
      [
        "os",
        "p"
      ],
      [
        "Ġagain",
        "st"
      ],
      [
        "Ġc",
        "or"
      ],
      [
        "Ġto",
        "o"
      ],
      [
        "Ġm",
        "ove"
      ],
      [
        "Ġha",
        "pp"
      ],
      [
        "our",
        "ce"
      ],
      [
        "Ġ",
        "Q"
      ],
      [
        "ĠEd",
        "ucation"
      ],
      [
        "uth",
        "or"
      ],
      [
        "in",
        "ation"
      ],
      [
        "le",
        "ment"
      ],
      [
        "u",
        "se"
      ],
      [
        "i",
        "k"
      ],
      [
        "is",
        "ion"
      ],
      [
        "at",
        "ter"
      ],
      [
        "tt",
        "p"
      ],
      [
        "Ġen",
        "vironment"
      ],
      [
        "Ġf",
        "ocus"
      ],
      [
        "end",
        "ed"
      ],
      [
        "Ġe",
        "t"
      ],
      [
        "ent",
        "ion"
      ],
      [
        "ĠC",
        "ity"
      ],
      [
        "Ġpartic",
        "ip"
      ],
      [
        "ĠEu",
        "rope"
      ],
      [
        "Ġgo",
        "ing"
      ],
      [
        "o",
        "or"
      ],
      [
        "u",
        "g"
      ],
      [
        "Ġre",
        "al"
      ],
      [
        "ro",
        "om"
      ],
      [
        "Ġimp",
        "ro"
      ],
      [
        "Ġcall",
        "ed"
      ],
      [
        "l",
        "ine"
      ],
      [
        "Ġbet",
        "ter"
      ],
      [
        "Ġav",
        "ail"
      ],
      [
        ":",
        "//"
      ],
      [
        "Ġe",
        "as"
      ],
      [
        "Ġs",
        "l"
      ],
      [
        "is",
        "ing"
      ],
      [
        "Ġcon",
        "st"
      ],
      [
        "os",
        "ed"
      ],
      [
        "Ġpro",
        "f"
      ],
      [
        "ain",
        "s"
      ],
      [
        "he",
        "re"
      ],
      [
        "or",
        "ies"
      ],
      [
        "Ġ1",
        "6"
      ],
      [
        "Ġare",
        "as"
      ],
      [
        "Ġke",
        "ep"
      ],
      [
        "Ġen",
        "c"
      ],
      [
        "b",
        "s"
      ],
      [
        "Ġd",
        "irect"
      ],
      [
        "Ġr",
        "un"
      ],
      [
        "em",
        "ber"
      ],
      [
        "Ġ19",
        "9"
      ],
      [
        "ri",
        "end"
      ],
      [
        "Ġind",
        "ividual"
      ],
      [
        "i",
        "od"
      ],
      [
        "Ġm",
        "ater"
      ],
      [
        "Ġan",
        "other"
      ],
      [
        "Ġare",
        "a"
      ],
      [
        "er",
        "tain"
      ],
      [
        "el",
        "s"
      ],
      [
        "ĠCount",
        "y"
      ],
      [
        "Ġb",
        "ro"
      ],
      [
        "if",
        "y"
      ],
      [
        "Ġexper",
        "ience"
      ],
      [
        "I",
        "t"
      ],
      [
        "ĠS",
        "oc"
      ],
      [
        "re",
        "t"
      ],
      [
        "Ġen",
        "g"
      ],
      [
        "aj",
        "or"
      ],
      [
        "Ġs",
        "ince"
      ],
      [
        "Ġst",
        "at"
      ],
      [
        "Ġ",
        "ve"
      ],
      [
        "er",
        "gy"
      ],
      [
        "Ġ1",
        "4"
      ],
      [
        "ĠE",
        "ng"
      ],
      [
        "Ġb",
        "as"
      ],
      [
        "Ġb",
        "ody"
      ],
      [
        "ĠM",
        "in"
      ],
      [
        "iz",
        "ation"
      ],
      [
        "Ġadd",
        "ition"
      ],
      [
        "ĠJew",
        "ish"
      ],
      [
        "Ġunt",
        "il"
      ],
      [
        "id",
        "d"
      ],
      [
        "Ġ1",
        "7"
      ],
      [
        "ul",
        "ation"
      ],
      [
        "or",
        "th"
      ],
      [
        "Ġb",
        "en"
      ],
      [
        "Ġcom",
        "e"
      ],
      [
        "eth",
        "od"
      ],
      [
        "Ġlit",
        "er"
      ],
      [
        "Ġsu",
        "pp"
      ],
      [
        "i",
        "um"
      ],
      [
        "eth",
        "ing"
      ],
      [
        "Ġcur",
        "rent"
      ],
      [
        "er",
        "t"
      ],
      [
        "ĠE",
        "x"
      ],
      [
        "Ġle",
        "g"
      ],
      [
        "Ġhe",
        "re"
      ],
      [
        "r",
        "at"
      ],
      [
        "r",
        "ation"
      ],
      [
        "I",
        "N"
      ],
      [
        "d",
        "ition"
      ],
      [
        "Ġb",
        "orn"
      ],
      [
        "s",
        "h"
      ],
      [
        "Ġ",
        "["
      ],
      [
        "e",
        "k"
      ],
      [
        "ĠĠĠĠ",
        "Ġ"
      ],
      [
        "Ġre",
        "st"
      ],
      [
        "i",
        "or"
      ],
      [
        "A",
        "R"
      ],
      [
        "a",
        "per"
      ],
      [
        "Ġ",
        "Z"
      ],
      [
        "in",
        "ess"
      ],
      [
        "res",
        "ent"
      ],
      [
        "s",
        "w"
      ],
      [
        "ĠJ",
        "ohn"
      ],
      [
        "og",
        "n"
      ],
      [
        "Ġant",
        "i"
      ],
      [
        "ab",
        "or"
      ],
      [
        "Ġle",
        "ft"
      ],
      [
        "Ġmon",
        "th"
      ],
      [
        "Ġposs",
        "ible"
      ],
      [
        "ver",
        "t"
      ],
      [
        "Ġcomm",
        "on"
      ],
      [
        "i",
        "ans"
      ],
      [
        "r",
        "on"
      ],
      [
        "Ġed",
        "uc"
      ],
      [
        "A",
        "T"
      ],
      [
        "a",
        "pp"
      ],
      [
        "es",
        "p"
      ],
      [
        "Ġch",
        "ange"
      ],
      [
        "ĠWh",
        "at"
      ],
      [
        "g",
        "er"
      ],
      [
        "Ġc",
        "reat"
      ],
      [
        "ab",
        "ility"
      ],
      [
        "Ġschool",
        "s"
      ],
      [
        "ur",
        "s"
      ],
      [
        "----------------",
        "----------------"
      ],
      [
        "Ġf",
        "low"
      ],
      [
        "Ġn",
        "on"
      ],
      [
        "Ġlit",
        "tle"
      ],
      [
        "c",
        "ent"
      ],
      [
        "Ġm",
        "en"
      ],
      [
        "ĠW",
        "hen"
      ],
      [
        "led",
        "ge"
      ],
      [
        "ot",
        "t"
      ],
      [
        "Ġ2",
        "5"
      ],
      [
        "Ġavail",
        "able"
      ],
      [
        "Ġl",
        "ot"
      ],
      [
        "am",
        "es"
      ],
      [
        "Ġal",
        "ways"
      ],
      [
        "ĠU",
        "t"
      ],
      [
        "Ġcount",
        "ry"
      ],
      [
        "Ġf",
        "ac"
      ],
      [
        "ent",
        "ly"
      ],
      [
        "Ġre",
        "ally"
      ],
      [
        "op",
        "e"
      ],
      [
        "Ġab",
        "le"
      ],
      [
        "og",
        "raph"
      ],
      [
        "ra",
        "in"
      ],
      [
        "i",
        "ver"
      ],
      [
        "Ġg",
        "re"
      ],
      [
        "Ġv",
        "ol"
      ],
      [
        "Ġen",
        "ergy"
      ],
      [
        "E",
        "S"
      ],
      [
        "p",
        "ar"
      ],
      [
        "Ġf",
        "ield"
      ],
      [
        "il",
        "ities"
      ],
      [
        "ak",
        "en"
      ],
      [
        "Ġpartic",
        "ular"
      ],
      [
        "Ġ",
        "er"
      ],
      [
        "du",
        "ction"
      ],
      [
        "Ġm",
        "us"
      ],
      [
        "Ġd",
        "ays"
      ],
      [
        "Ġse",
        "ver"
      ],
      [
        "ra",
        "y"
      ],
      [
        "th",
        "ing"
      ],
      [
        "3",
        "0"
      ],
      [
        "âĢ",
        "ľ"
      ],
      [
        "t",
        "o"
      ],
      [
        "ou",
        "ra"
      ],
      [
        "Ġhe",
        "ad"
      ],
      [
        "Ġg",
        "en"
      ],
      [
        "Ġpro",
        "per"
      ],
      [
        "Ġquest",
        "ion"
      ],
      [
        "Ġsom",
        "ething"
      ],
      [
        "Ġp",
        "ut"
      ],
      [
        "un",
        "ity"
      ],
      [
        "Ġm",
        "ajor"
      ],
      [
        "ic",
        "y"
      ],
      [
        "Ġl",
        "ight"
      ],
      [
        "Ġsu",
        "ccess"
      ],
      [
        "b",
        "r"
      ],
      [
        "Ġpol",
        "it"
      ],
      [
        "Ġsub",
        "ject"
      ],
      [
        "Wh",
        "at"
      ],
      [
        "c",
        "le"
      ],
      [
        "Ġc",
        "rit"
      ],
      [
        "ou",
        "th"
      ],
      [
        "Ġd",
        "el"
      ],
      [
        "uc",
        "k"
      ],
      [
        "w",
        "ard"
      ],
      [
        "Ġme",
        "et"
      ],
      [
        "Ġteacher",
        "s"
      ],
      [
        "ĠA",
        "ll"
      ],
      [
        "du",
        "ce"
      ],
      [
        "Ġparent",
        "s"
      ],
      [
        "em",
        "it"
      ],
      [
        "Ġne",
        "ver"
      ],
      [
        "Ġec",
        "onom"
      ],
      [
        "Ġme",
        "ans"
      ],
      [
        "Ġfollow",
        "ing"
      ],
      [
        "Ġsever",
        "al"
      ],
      [
        "ĠCh",
        "rist"
      ],
      [
        "m",
        "it"
      ],
      [
        "ĠHow",
        "ever"
      ],
      [
        "Ġactiv",
        "ities"
      ],
      [
        "Ġa",
        "ge"
      ],
      [
        "Ġp",
        "ar"
      ],
      [
        "ĠS",
        "o"
      ],
      [
        "Ġbec",
        "ome"
      ],
      [
        "Ġa",
        "uthor"
      ],
      [
        "is",
        "c"
      ],
      [
        "Ġm",
        "ethod"
      ],
      [
        "ent",
        "ial"
      ],
      [
        "ĠL",
        "ake"
      ],
      [
        "--",
        "-|"
      ],
      [
        "Ġneed",
        "s"
      ],
      [
        "2",
        "00"
      ],
      [
        "A",
        "N"
      ],
      [
        "Ġe",
        "l"
      ],
      [
        "Ġper",
        "iod"
      ],
      [
        "Ġm",
        "ark"
      ],
      [
        "Ġb",
        "re"
      ],
      [
        "Ġmater",
        "ial"
      ],
      [
        "Ġre",
        "ce"
      ],
      [
        "ĠC",
        "ent"
      ],
      [
        "l",
        "u"
      ],
      [
        "Ġ3",
        "0"
      ],
      [
        "S",
        "t"
      ],
      [
        "Ġt",
        "imes"
      ],
      [
        "Ġe",
        "ither"
      ],
      [
        "Ġread",
        "ing"
      ],
      [
        "ur",
        "y"
      ],
      [
        "Ġen",
        "s"
      ],
      [
        "ate",
        "g"
      ],
      [
        "Ġe",
        "lect"
      ],
      [
        "Ġr",
        "is"
      ],
      [
        "Ġt",
        "re"
      ],
      [
        "Ġg",
        "ive"
      ],
      [
        "augh",
        "ter"
      ],
      [
        "1",
        "2"
      ],
      [
        "Ġ",
        "ill"
      ],
      [
        "Ġd",
        "ri"
      ],
      [
        "e",
        "ad"
      ],
      [
        "Ġw",
        "ar"
      ],
      [
        "Ġp",
        "ost"
      ],
      [
        "ĠA",
        "t"
      ],
      [
        "ĠN",
        "ational"
      ],
      [
        "p",
        "ort"
      ],
      [
        "Ġf",
        "ree"
      ],
      [
        "ĠI",
        "I"
      ],
      [
        "el",
        "f"
      ],
      [
        "Ġpoin",
        "t"
      ],
      [
        "Ġg",
        "iven"
      ],
      [
        "ord",
        "ing"
      ],
      [
        "Ġhom",
        "eless"
      ],
      [
        "Ġgovern",
        "ment"
      ],
      [
        "ĠUt",
        "ah"
      ],
      [
        "or",
        "g"
      ],
      [
        "ĠP",
        "ol"
      ],
      [
        "Ġme",
        "an"
      ],
      [
        "Ġother",
        "s"
      ],
      [
        "Ġper",
        "form"
      ],
      [
        "Ġam",
        "ong"
      ],
      [
        "Ġiss",
        "ues"
      ],
      [
        "p",
        "or"
      ],
      [
        "at",
        "ural"
      ],
      [
        "Ġc",
        "ost"
      ],
      [
        "in",
        "a"
      ],
      [
        "Ġh",
        "ard"
      ],
      [
        "Ġle",
        "t"
      ],
      [
        "Ġinv",
        "ol"
      ],
      [
        "n",
        "y"
      ],
      [
        "Ġb",
        "ased"
      ],
      [
        "ab",
        "ly"
      ],
      [
        "Ġl",
        "iving"
      ],
      [
        "ur",
        "ther"
      ],
      [
        "Ġcon",
        "n"
      ],
      [
        "Ġt",
        "urn"
      ],
      [
        "Ġn",
        "ame"
      ],
      [
        "ut",
        "ure"
      ],
      [
        "Ġme",
        "as"
      ],
      [
        "'",
        "re"
      ],
      [
        "ĠS",
        "u"
      ],
      [
        "ac",
        "y"
      ],
      [
        "b",
        "e"
      ],
      [
        "Ġt",
        "ry"
      ],
      [
        "in",
        "t"
      ],
      [
        "Ġc",
        "ase"
      ],
      [
        "ĠA",
        "f"
      ],
      [
        "Ġpro",
        "duct"
      ],
      [
        "ĠSt",
        "ates"
      ],
      [
        "Ġgroup",
        "s"
      ],
      [
        "S",
        "emit"
      ],
      [
        "Ġm",
        "et"
      ],
      [
        "Ġte",
        "am"
      ],
      [
        "Ġt",
        "em"
      ],
      [
        "il",
        "ar"
      ],
      [
        "id",
        "ence"
      ],
      [
        "Ġchar",
        "acter"
      ],
      [
        "W",
        "e"
      ],
      [
        "Ġv",
        "iew"
      ],
      [
        "p",
        "ect"
      ],
      [
        "Ġl",
        "aw"
      ],
      [
        "ig",
        "ure"
      ],
      [
        "r",
        "ing"
      ],
      [
        "our",
        "s"
      ],
      [
        "e",
        "e"
      ],
      [
        "Ġf",
        "riend"
      ],
      [
        "Ġt",
        "alk"
      ],
      [
        "Ġb",
        "us"
      ],
      [
        "Ġd",
        "ra"
      ],
      [
        "ĠW",
        "or"
      ],
      [
        "Ġde",
        "v"
      ],
      [
        "ĠTh",
        "at"
      ],
      [
        "Ġ",
        "."
      ],
      [
        "Ġp",
        "ress"
      ],
      [
        "ol",
        "ution"
      ],
      [
        "Ġ1",
        "3"
      ],
      [
        "Ġan",
        "al"
      ],
      [
        "ĠF",
        "r"
      ],
      [
        "art",
        "ment"
      ],
      [
        "Ġim",
        "m"
      ],
      [
        "Ġprovid",
        "ed"
      ],
      [
        "o",
        "ot"
      ],
      [
        "at",
        "ors"
      ],
      [
        "Ġf",
        "ore"
      ],
      [
        "ir",
        "d"
      ],
      [
        "in",
        "al"
      ],
      [
        "ĠS",
        "alt"
      ],
      [
        "one",
        "y"
      ],
      [
        "o",
        "id"
      ],
      [
        "p",
        "ro"
      ],
      [
        "ra",
        "p"
      ],
      [
        "âĢ",
        "¢"
      ],
      [
        "Ġse",
        "em"
      ],
      [
        "Ġl",
        "im"
      ],
      [
        "Ġde",
        "ath"
      ],
      [
        "a",
        "ff"
      ],
      [
        "c",
        "il"
      ],
      [
        "v",
        "ious"
      ],
      [
        "olog",
        "ical"
      ],
      [
        ",",
        "âĢĿ"
      ],
      [
        "5",
        "0"
      ],
      [
        "Ġm",
        "aking"
      ],
      [
        "Ġn",
        "ear"
      ],
      [
        "Ġcolle",
        "ge"
      ],
      [
        "n",
        "al"
      ],
      [
        "Ġs",
        "w"
      ],
      [
        "Ġc",
        "y"
      ],
      [
        "Ġexper",
        "ien"
      ],
      [
        "Ġaw",
        "ay"
      ],
      [
        "Ġch",
        "all"
      ],
      [
        "Ġsign",
        "ific"
      ],
      [
        "Ġret",
        "urn"
      ],
      [
        "Ġl",
        "ow"
      ],
      [
        "od",
        "e"
      ],
      [
        "Ġp",
        "ict"
      ],
      [
        "Ġf",
        "und"
      ],
      [
        "Ġacc",
        "ess"
      ],
      [
        "ĠUn",
        "iversity"
      ],
      [
        "l",
        "er"
      ],
      [
        "o",
        "f"
      ],
      [
        "Ġhe",
        "art"
      ],
      [
        "Ġha",
        "ving"
      ],
      [
        "ĠUn",
        "ited"
      ],
      [
        "i",
        "pp"
      ],
      [
        "Ġre",
        "le"
      ],
      [
        "sel",
        "ves"
      ],
      [
        "r",
        "ig"
      ],
      [
        "Ġo",
        "per"
      ],
      [
        "il",
        "it"
      ],
      [
        "Ġte",
        "xt"
      ],
      [
        "Ġcle",
        "ar"
      ],
      [
        "m",
        "in"
      ],
      [
        "st",
        "er"
      ],
      [
        "im",
        "s"
      ],
      [
        "Ġsa",
        "f"
      ],
      [
        "en",
        "cy"
      ],
      [
        "Ġinclud",
        "e"
      ],
      [
        "Ċ",
        "ĠĠĠ"
      ],
      [
        "ag",
        "n"
      ],
      [
        "ĠB",
        "e"
      ],
      [
        "ĠâĢ",
        "Ķ"
      ],
      [
        "ĠO",
        "n"
      ],
      [
        "Ġben",
        "ef"
      ],
      [
        "s",
        "ide"
      ],
      [
        "Ġo",
        "pport"
      ],
      [
        "Ġto",
        "get"
      ],
      [
        "ic",
        "ult"
      ],
      [
        "Ġtoget",
        "her"
      ],
      [
        "l",
        "or"
      ],
      [
        "an",
        "ces"
      ],
      [
        "ĠM",
        "an"
      ],
      [
        "Ġex",
        "am"
      ],
      [
        "Ġdesc",
        "rib"
      ],
      [
        "Ġn",
        "ational"
      ],
      [
        "ĠA",
        "ss"
      ],
      [
        "un",
        "e"
      ],
      [
        "ĠU",
        "S"
      ],
      [
        "ru",
        "ction"
      ],
      [
        "ric",
        "t"
      ],
      [
        "Ġmem",
        "bers"
      ],
      [
        "Ġwh",
        "y"
      ],
      [
        "Ġac",
        "ross"
      ],
      [
        "ĠAmeric",
        "an"
      ],
      [
        "m",
        "ber"
      ],
      [
        "Ġ",
        "Ø"
      ],
      [
        "Ġd",
        "r"
      ],
      [
        "Ġbe",
        "g"
      ],
      [
        "ort",
        "s"
      ],
      [
        "Ġbl",
        "ood"
      ],
      [
        "C",
        "h"
      ],
      [
        "it",
        "or"
      ],
      [
        "Ġh",
        "ttp"
      ],
      [
        "ĠO",
        "ne"
      ],
      [
        "Ġne",
        "xt"
      ],
      [
        "ere",
        "nce"
      ],
      [
        "Ġincre",
        "ase"
      ],
      [
        "ill",
        "ion"
      ],
      [
        "Ġsu",
        "ff"
      ],
      [
        "ĠJ",
        "an"
      ],
      [
        "ec",
        "ess"
      ],
      [
        "ap",
        "s"
      ],
      [
        "Ġknow",
        "n"
      ],
      [
        "Ġa",
        "ir"
      ],
      [
        "Ġs",
        "ing"
      ],
      [
        "E",
        "T"
      ],
      [
        "Ġp",
        "ot"
      ],
      [
        "Ġst",
        "ruct"
      ],
      [
        "Ġke",
        "y"
      ],
      [
        "u",
        "ation"
      ],
      [
        "Ġbe",
        "low"
      ],
      [
        "O",
        "R"
      ],
      [
        "ic",
        "le"
      ],
      [
        "Ġl",
        "anguage"
      ],
      [
        "Ġex",
        "ist"
      ],
      [
        "Ġknow",
        "ledge"
      ],
      [
        "m",
        "ost"
      ],
      [
        "Ġt",
        "reat"
      ],
      [
        "Ġspec",
        "ific"
      ],
      [
        "ut",
        "ions"
      ],
      [
        "Ġf",
        "uture"
      ],
      [
        "Ġd",
        "ue"
      ],
      [
        "ch",
        "ie"
      ],
      [
        "Ġsp",
        "ace"
      ],
      [
        "ain",
        "ed"
      ],
      [
        "end",
        "ing"
      ],
      [
        "Ġtra",
        "ining"
      ],
      [
        "Ġro",
        "om"
      ],
      [
        "Ġcour",
        "se"
      ],
      [
        "Ġspec",
        "ial"
      ],
      [
        "Ġcount",
        "ries"
      ],
      [
        "ĠAf",
        "ric"
      ],
      [
        "at",
        "s"
      ],
      [
        "Ġsk",
        "ills"
      ],
      [
        "Ġserv",
        "ices"
      ],
      [
        "n",
        "ot"
      ],
      [
        "Ġf",
        "ish"
      ],
      [
        "th",
        "ough"
      ],
      [
        "ĠR",
        "ep"
      ],
      [
        "Ġrel",
        "ations"
      ],
      [
        "Ġro",
        "le"
      ],
      [
        "Ġwrit",
        "ing"
      ],
      [
        "l",
        "ished"
      ],
      [
        "Ġo",
        "pt"
      ],
      [
        "ent",
        "al"
      ],
      [
        "is",
        "on"
      ],
      [
        "ĠP",
        "h"
      ],
      [
        "ĠE",
        "n"
      ],
      [
        "Ġrel",
        "ig"
      ],
      [
        "Ġp",
        "ur"
      ],
      [
        "Ġf",
        "re"
      ],
      [
        "ĠM",
        "ar"
      ],
      [
        "ive",
        "ly"
      ],
      [
        "Ġconsid",
        "er"
      ],
      [
        "Ġacc",
        "ount"
      ],
      [
        "ĠC",
        "an"
      ],
      [
        "iv",
        "ity"
      ],
      [
        "Ġte",
        "aching"
      ],
      [
        "Ġl",
        "ater"
      ],
      [
        "ĠI",
        "m"
      ],
      [
        "ore",
        "d"
      ],
      [
        "Ġca",
        "us"
      ],
      [
        "1",
        "1"
      ],
      [
        "it",
        "i"
      ],
      [
        "ut",
        "es"
      ],
      [
        "ĠC",
        "omp"
      ],
      [
        "Ġwork",
        "ing"
      ],
      [
        "Ġfam",
        "il"
      ],
      [
        "w",
        "ork"
      ],
      [
        "Ġd",
        "am"
      ],
      [
        "Ġh",
        "ig"
      ],
      [
        "Ġh",
        "ouse"
      ],
      [
        "Ġpl",
        "ac"
      ],
      [
        "Ġk",
        "ind"
      ],
      [
        "c",
        "l"
      ],
      [
        "Ġc",
        "ir"
      ],
      [
        "Ġl",
        "ove"
      ],
      [
        "Ġdis",
        "e"
      ],
      [
        "Ġadd",
        "ress"
      ],
      [
        "ww",
        "w"
      ],
      [
        "Ġre",
        "ason"
      ],
      [
        "ĠH",
        "er"
      ],
      [
        "Ġquest",
        "ions"
      ],
      [
        ",",
        "\""
      ],
      [
        "duc",
        "ed"
      ],
      [
        "Ġs",
        "ide"
      ],
      [
        "Ġc",
        "ertain"
      ],
      [
        "um",
        "p"
      ],
      [
        "ib",
        "r"
      ],
      [
        "Ġlike",
        "ly"
      ],
      [
        "Ġvar",
        "ious"
      ],
      [
        "Ġt",
        "ell"
      ],
      [
        "Ġsu",
        "m"
      ],
      [
        "u",
        "ed"
      ],
      [
        "ust",
        "om"
      ],
      [
        "Ġdiff",
        "icult"
      ],
      [
        "Ġw",
        "r"
      ],
      [
        "ib",
        "ility"
      ],
      [
        "f",
        "or"
      ],
      [
        "inc",
        "ip"
      ],
      [
        "I",
        "ON"
      ],
      [
        "Ġ",
        "ri"
      ],
      [
        "Ġto",
        "ok"
      ],
      [
        "ĠS",
        "chool"
      ],
      [
        "ĠP",
        "r"
      ],
      [
        "Ġcom",
        "b"
      ],
      [
        "Ġle",
        "ast"
      ],
      [
        "i",
        "am"
      ],
      [
        "ic",
        "ation"
      ],
      [
        "ir",
        "l"
      ],
      [
        "A",
        "L"
      ],
      [
        "x",
        "ts"
      ],
      [
        "ĠS",
        "m"
      ],
      [
        "Ġest",
        "ab"
      ],
      [
        "Ġl",
        "ive"
      ],
      [
        "w",
        "ards"
      ],
      [
        "Ġsignific",
        "ant"
      ],
      [
        "st",
        "it"
      ],
      [
        "Ġres",
        "ources"
      ],
      [
        "ĠHe",
        "alth"
      ],
      [
        "2",
        "1"
      ],
      [
        "Ġph",
        "ys"
      ],
      [
        "________",
        "________"
      ],
      [
        "Ġcre",
        "ate"
      ],
      [
        "i",
        "res"
      ],
      [
        "Ġt",
        "aken"
      ],
      [
        "at",
        "or"
      ],
      [
        "Ġc",
        "ame"
      ],
      [
        "ar",
        "r"
      ],
      [
        "Ġg",
        "r"
      ],
      [
        "Ġproblem",
        "s"
      ],
      [
        "Ġab",
        "ove"
      ],
      [
        "Ġrec",
        "ogn"
      ],
      [
        "Ġsoc",
        "iety"
      ],
      [
        "Ġf",
        "ull"
      ],
      [
        "Ġm",
        "oney"
      ],
      [
        "ĠB",
        "l"
      ],
      [
        "Ġman",
        "agement"
      ],
      [
        "Ġimp",
        "act"
      ],
      [
        "ion",
        "e"
      ],
      [
        "id",
        "s"
      ],
      [
        "ĠD",
        "o"
      ],
      [
        "gg",
        "est"
      ],
      [
        "ĠWor",
        "ld"
      ],
      [
        "e",
        "xt"
      ],
      [
        "Ġan",
        "sw"
      ],
      [
        "pl",
        "oy"
      ],
      [
        "Ġst",
        "ory"
      ],
      [
        "g",
        "ress"
      ],
      [
        "o",
        "ad"
      ],
      [
        "Ġb",
        "ig"
      ],
      [
        "Ġen",
        "ough"
      ],
      [
        "b",
        "y"
      ],
      [
        "e",
        "b"
      ],
      [
        "Ġ",
        "Ù"
      ],
      [
        "Ġa",
        "ut"
      ],
      [
        "Ġp",
        "aper"
      ],
      [
        "as",
        "ter"
      ],
      [
        "o",
        "ber"
      ],
      [
        "ie",
        "f"
      ],
      [
        "read",
        "y"
      ],
      [
        "ap",
        "e"
      ],
      [
        "Ġinv",
        "est"
      ],
      [
        "Ġcomple",
        "te"
      ],
      [
        "Ġimpro",
        "ve"
      ],
      [
        "al",
        "f"
      ],
      [
        "il",
        "es"
      ],
      [
        "âĢ",
        "¦"
      ],
      [
        "Ġst",
        "ates"
      ],
      [
        "Ġsu",
        "re"
      ],
      [
        "ĠG",
        "erm"
      ],
      [
        "Ġhist",
        "or"
      ],
      [
        "A",
        "s"
      ],
      [
        "E",
        "N"
      ],
      [
        "Ġf",
        "urther"
      ],
      [
        "ure",
        "d"
      ],
      [
        "Ġrep",
        "resent"
      ],
      [
        "g",
        "es"
      ],
      [
        "Ġp",
        "ay"
      ],
      [
        "Ġm",
        "ult"
      ],
      [
        "Ġn",
        "ecess"
      ],
      [
        "im",
        "ate"
      ],
      [
        "Ġan",
        "im"
      ],
      [
        "Ġpro",
        "p"
      ],
      [
        "Ġrec",
        "ord"
      ],
      [
        "rop",
        "ri"
      ],
      [
        "I",
        "f"
      ],
      [
        "Ġ",
        "**"
      ],
      [
        "he",
        "m"
      ],
      [
        "Ġs",
        "ix"
      ],
      [
        "Ġf",
        "r"
      ],
      [
        "oun",
        "cil"
      ],
      [
        "Ġpolit",
        "ical"
      ],
      [
        "f",
        "ace"
      ],
      [
        "Ġa",
        "chie"
      ],
      [
        "Ġw",
        "ays"
      ],
      [
        "Ġg",
        "if"
      ],
      [
        "id",
        "es"
      ],
      [
        "ĠM",
        "rs"
      ],
      [
        "ĠO",
        "r"
      ],
      [
        "Ġoff",
        "ic"
      ],
      [
        "Ġam",
        "ount"
      ],
      [
        "Ġob",
        "s"
      ],
      [
        "Ġword",
        "s"
      ],
      [
        "as",
        "ing"
      ],
      [
        "Ġn",
        "atural"
      ],
      [
        "un",
        "g"
      ],
      [
        "pl",
        "es"
      ],
      [
        "idd",
        "le"
      ],
      [
        "it",
        "ing"
      ],
      [
        "Ġf",
        "ive"
      ],
      [
        "Ġcons",
        "um"
      ],
      [
        "c",
        "her"
      ],
      [
        "ĠĠĠĠ",
        "ĠĠĠ"
      ],
      [
        "ĠW",
        "ar"
      ],
      [
        "Ġsh",
        "ort"
      ],
      [
        "Ġclass",
        "room"
      ],
      [
        "an",
        "e"
      ],
      [
        "Ġd",
        "one"
      ],
      [
        "ĠJew",
        "s"
      ],
      [
        "en",
        "ing"
      ],
      [
        "ric",
        "ul"
      ],
      [
        "Ġpre",
        "vent"
      ],
      [
        "or",
        "ial"
      ],
      [
        "el",
        "t"
      ],
      [
        "Ġal",
        "ready"
      ],
      [
        "Ġinf",
        "lu"
      ],
      [
        "Ġenc",
        "oura"
      ],
      [
        "Ġris",
        "k"
      ],
      [
        "y",
        "n"
      ],
      [
        "at",
        "ic"
      ],
      [
        "Ġthem",
        "selves"
      ],
      [
        "Ġsystem",
        "s"
      ],
      [
        "Ġdet",
        "erm"
      ],
      [
        "a",
        "pt"
      ],
      [
        "Ġresult",
        "s"
      ],
      [
        "Ġb",
        "i"
      ],
      [
        "Ġal",
        "ong"
      ],
      [
        "em",
        "ents"
      ],
      [
        "Ġind",
        "ust"
      ],
      [
        "1",
        "8"
      ],
      [
        "Ġc",
        "ity"
      ],
      [
        "Ġd",
        "aughter"
      ],
      [
        "Ġsu",
        "ggest"
      ],
      [
        "Ġbook",
        "s"
      ],
      [
        "1",
        "5"
      ],
      [
        "Y",
        "ou"
      ],
      [
        "Ġe",
        "ver"
      ],
      [
        "Ġpract",
        "ice"
      ],
      [
        "Semit",
        "ism"
      ],
      [
        "Ġc",
        "ause"
      ],
      [
        "Ġto",
        "day"
      ],
      [
        "le",
        "t"
      ],
      [
        "ĠĠĠĠ",
        "ĠĠ"
      ],
      [
        "ill",
        "ed"
      ],
      [
        "ĠW",
        "ith"
      ],
      [
        "ne",
        "y"
      ],
      [
        "Ġfl",
        "ood"
      ],
      [
        "A",
        "C"
      ],
      [
        "v",
        "al"
      ],
      [
        "Ġt",
        "ru"
      ],
      [
        "Ġan",
        "n"
      ],
      [
        "ĊĊ",
        "Ġ"
      ],
      [
        "h",
        "ing"
      ],
      [
        "Ġt",
        "ax"
      ],
      [
        "Ġm",
        "ot"
      ],
      [
        "ĠB",
        "y"
      ],
      [
        "ear",
        "ch"
      ],
      [
        "Ġpri",
        "v"
      ],
      [
        "as",
        "k"
      ],
      [
        "ĠN",
        "o"
      ],
      [
        "ru",
        "g"
      ],
      [
        "H",
        "ow"
      ],
      [
        "Ġt",
        "ri"
      ],
      [
        "ĠM",
        "ay"
      ],
      [
        "ult",
        "ural"
      ],
      [
        "Ġhow",
        "ever"
      ],
      [
        "Ġpos",
        "itive"
      ],
      [
        ":",
        "âĢĶ"
      ],
      [
        "d",
        "en"
      ],
      [
        "o",
        "le"
      ],
      [
        "Ġn",
        "ut"
      ],
      [
        "ĠE",
        "ar"
      ],
      [
        "ĠCh",
        "urch"
      ],
      [
        "Ġunderstand",
        "ing"
      ],
      [
        "Ġthough",
        "t"
      ],
      [
        "Ġ",
        "ur"
      ],
      [
        "on",
        "y"
      ],
      [
        "ĠĠĠĠĠĠĠĠ",
        "Ġ"
      ],
      [
        "ul",
        "ly"
      ],
      [
        "Ġwho",
        "le"
      ],
      [
        "a",
        "f"
      ],
      [
        "i",
        "ents"
      ],
      [
        "st",
        "r"
      ],
      [
        "Ġg",
        "round"
      ],
      [
        "Ġne",
        "g"
      ],
      [
        "Ġbus",
        "iness"
      ],
      [
        "ist",
        "ry"
      ],
      [
        "Ġse",
        "en"
      ],
      [
        "Ġ",
        "ess"
      ],
      [
        "un",
        "ities"
      ],
      [
        "ĠCh",
        "ar"
      ],
      [
        "Ġbec",
        "ame"
      ],
      [
        "Ġcult",
        "ure"
      ],
      [
        "c",
        "hes"
      ],
      [
        "Ġpr",
        "im"
      ],
      [
        "Ġp",
        "ain"
      ],
      [
        "Ġcon",
        "d"
      ],
      [
        "Ġsome",
        "one"
      ],
      [
        "ut",
        "er"
      ],
      [
        "o",
        "x"
      ],
      [
        "ar",
        "get"
      ],
      [
        "ot",
        "s"
      ],
      [
        "u",
        "ment"
      ],
      [
        "Ġm",
        "akes"
      ],
      [
        "Ġh",
        "ous"
      ],
      [
        "il",
        "s"
      ],
      [
        "Ġon",
        "ce"
      ],
      [
        "Ġdevelop",
        "ed"
      ],
      [
        "Ġass",
        "ist"
      ],
      [
        "Ġass",
        "oci"
      ],
      [
        "at",
        "t"
      ],
      [
        "ers",
        "hip"
      ],
      [
        "'",
        "m"
      ],
      [
        "n",
        "ew"
      ],
      [
        "Ġ",
        "="
      ],
      [
        "re",
        "g"
      ],
      [
        "ec",
        "ially"
      ],
      [
        "Ġincre",
        "ased"
      ],
      [
        "'",
        "ve"
      ],
      [
        "Ġs",
        "elf"
      ],
      [
        "am",
        "m"
      ],
      [
        "ĠSt",
        "ate"
      ],
      [
        "Ġstr",
        "ong"
      ],
      [
        "Ġrelations",
        "hip"
      ],
      [
        "n",
        "a"
      ],
      [
        "Ù",
        "Ħ"
      ],
      [
        "Ġt",
        "er"
      ],
      [
        "at",
        "ory"
      ],
      [
        "ĠR",
        "oss"
      ],
      [
        "Ġg",
        "ot"
      ],
      [
        "ĠA",
        "ct"
      ],
      [
        "Ġcol",
        "lect"
      ],
      [
        "Ġdet",
        "ail"
      ],
      [
        "Ġmar",
        "ried"
      ],
      [
        ".",
        ")"
      ],
      [
        "I",
        "S"
      ],
      [
        "N",
        "A"
      ],
      [
        "e",
        "ed"
      ],
      [
        "i",
        "i"
      ],
      [
        "Ġp",
        "ast"
      ],
      [
        "il",
        "t"
      ],
      [
        "ail",
        "y"
      ],
      [
        "Ġpol",
        "icy"
      ],
      [
        "Ġwom",
        "an"
      ],
      [
        "ĠQ",
        "u"
      ],
      [
        "Ġs",
        "ense"
      ],
      [
        "Ġf",
        "ar"
      ],
      [
        "Ġr",
        "ange"
      ],
      [
        "Ġcommun",
        "ities"
      ],
      [
        "Ġprovid",
        "es"
      ],
      [
        "Ġpict",
        "ure"
      ],
      [
        "Ġcir",
        "c"
      ],
      [
        "he",
        "t"
      ],
      [
        "ild",
        "ren"
      ],
      [
        "Ġass",
        "ess"
      ],
      [
        "Ġinst",
        "it"
      ],
      [
        "Ġappro",
        "ach"
      ],
      [
        "Ġmov",
        "ed"
      ],
      [
        "Ġbeh",
        "av"
      ],
      [
        "A",
        "n"
      ],
      [
        "Ġ2",
        "4"
      ],
      [
        "Ġrec",
        "omm"
      ],
      [
        "Ġserv",
        "ice"
      ],
      [
        "Ġens",
        "ure"
      ],
      [
        "Ġ",
        "ir"
      ],
      [
        "use",
        "um"
      ],
      [
        "C",
        "E"
      ],
      [
        "Ġth",
        "ing"
      ],
      [
        "ĠH",
        "is"
      ],
      [
        "augh",
        "t"
      ],
      [
        "i",
        "ol"
      ],
      [
        "is",
        "her"
      ],
      [
        "Ġm",
        "ind"
      ],
      [
        "ob",
        "al"
      ],
      [
        "Ġpos",
        "ition"
      ],
      [
        "ĠW",
        "ill"
      ],
      [
        "esp",
        "ecially"
      ],
      [
        "ĠP",
        "res"
      ],
      [
        "Ġev",
        "ent"
      ],
      [
        "Ġrequ",
        "ire"
      ],
      [
        "Ġask",
        "ed"
      ],
      [
        "ic",
        "ated"
      ],
      [
        "Ġcomm",
        "it"
      ],
      [
        "ĠY",
        "ork"
      ],
      [
        "Ġbeg",
        "in"
      ],
      [
        "9",
        "9"
      ],
      [
        "Ġto",
        "t"
      ],
      [
        "Ġe",
        "le"
      ],
      [
        "Ġhe",
        "at"
      ],
      [
        "Ġbuild",
        "ing"
      ],
      [
        "Ġchang",
        "es"
      ],
      [
        "Ġeduc",
        "ational"
      ],
      [
        "y",
        "d"
      ],
      [
        "ĠA",
        "pr"
      ],
      [
        "Ġr",
        "ather"
      ],
      [
        "Ġ2",
        "3"
      ],
      [
        "Ġapp",
        "ropri"
      ],
      [
        "Ġmain",
        "tain"
      ],
      [
        "m",
        "b"
      ],
      [
        "ĠP",
        "er"
      ],
      [
        "h",
        "ood"
      ],
      [
        "Ġch",
        "urch"
      ],
      [
        "ight",
        "s"
      ],
      [
        "ag",
        "ed"
      ],
      [
        "Ġcont",
        "rib"
      ],
      [
        "Ġgener",
        "al"
      ],
      [
        "Ġp",
        "oor"
      ],
      [
        "Ġe",
        "y"
      ],
      [
        "Ġcl",
        "ose"
      ],
      [
        "Ġconc",
        "ern"
      ],
      [
        "T",
        "e"
      ],
      [
        "f",
        "er"
      ],
      [
        "ed",
        "er"
      ],
      [
        "Ġf",
        "ail"
      ],
      [
        "ĠT",
        "r"
      ],
      [
        "Ġinter",
        "n"
      ],
      [
        "Ġrequ",
        "ired"
      ],
      [
        "Ġet",
        "c"
      ],
      [
        "Ġc",
        "al"
      ],
      [
        "Ġf",
        "all"
      ],
      [
        "Ġab",
        "ility"
      ],
      [
        "à¤",
        "¾"
      ],
      [
        "Ġcol",
        "l"
      ],
      [
        "Ġlevel",
        "s"
      ],
      [
        "o",
        "ard"
      ],
      [
        "at",
        "ures"
      ],
      [
        "en",
        "ed"
      ],
      [
        "es",
        "c"
      ],
      [
        "ĠS",
        "ome"
      ],
      [
        "Ġmonth",
        "s"
      ],
      [
        "Ġpur",
        "p"
      ],
      [
        "ic",
        "ient"
      ],
      [
        "and",
        "s"
      ],
      [
        "ĠĠĠĠĠĠĠĠĠĠĠĠĠĠĠĠĠĠĠĠĠĠĠĠĠĠĠĠĠĠĠĠ",
        "ĠĠĠĠĠĠĠĠĠĠĠĠĠĠĠĠĠĠĠĠĠĠĠĠĠĠĠĠĠĠĠĠ"
      ],
      [
        "Ġmus",
        "ic"
      ],
      [
        "Ġd",
        "ied"
      ],
      [
        "ct",
        "or"
      ],
      [
        "Ġg",
        "irl"
      ],
      [
        "ĠM",
        "arch"
      ],
      [
        "Ġr",
        "ate"
      ],
      [
        "The",
        "re"
      ],
      [
        "Ġimp",
        "lement"
      ],
      [
        "av",
        "ing"
      ],
      [
        "u",
        "nt"
      ],
      [
        "Ġto",
        "ol"
      ],
      [
        "ro",
        "ll"
      ],
      [
        "Ġor",
        "ig"
      ],
      [
        "ĠG",
        "ra"
      ],
      [
        "n",
        "ces"
      ],
      [
        "Ġt",
        "arget"
      ],
      [
        "is",
        "ters"
      ],
      [
        "Ġf",
        "ather"
      ],
      [
        "Ġreg",
        "ard"
      ],
      [
        "Ġent",
        "ire"
      ],
      [
        "Ġb",
        "ar"
      ],
      [
        "Ġhe",
        "ld"
      ],
      [
        "Ġexp",
        "ress"
      ],
      [
        "Ġval",
        "ue"
      ],
      [
        "Ġprof",
        "ess"
      ],
      [
        "f",
        "ort"
      ],
      [
        "Ġh",
        "old"
      ],
      [
        "ĠH",
        "ist"
      ],
      [
        "ĠD",
        "ep"
      ],
      [
        "Ġocc",
        "ur"
      ],
      [
        "Ġprot",
        "ect"
      ],
      [
        "b",
        "ook"
      ],
      [
        "g",
        "ing"
      ],
      [
        "ar",
        "ing"
      ],
      [
        "Ġn",
        "et"
      ],
      [
        "Ġeffect",
        "s"
      ],
      [
        "Ġide",
        "a"
      ],
      [
        "Ġw",
        "ent"
      ],
      [
        "Ġp",
        "an"
      ],
      [
        "ĠG",
        "u"
      ],
      [
        "Ġwe",
        "ek"
      ],
      [
        "Ġcour",
        "t"
      ],
      [
        "W",
        "hen"
      ],
      [
        "ĠL",
        "ear"
      ],
      [
        "Ġform",
        "s"
      ],
      [
        "iqu",
        "e"
      ],
      [
        "ĠA",
        "b"
      ],
      [
        "Ġcon",
        "duct"
      ],
      [
        "ĠD",
        "r"
      ],
      [
        "ĠG",
        "e"
      ],
      [
        "ific",
        "ation"
      ],
      [
        "b",
        "an"
      ],
      [
        "e",
        "v"
      ],
      [
        "s",
        "y"
      ],
      [
        "s",
        "on"
      ],
      [
        "Ġ",
        "especially"
      ],
      [
        "ra",
        "el"
      ],
      [
        "Ġchall",
        "eng"
      ],
      [
        "w",
        "ay"
      ],
      [
        "Ġs",
        "ite"
      ],
      [
        "Ġst",
        "op"
      ],
      [
        "ĠM",
        "ed"
      ],
      [
        "Ġv",
        "ide"
      ],
      [
        "ĠN",
        "orth"
      ],
      [
        "Ġpop",
        "ulation"
      ],
      [
        "ar",
        "ies"
      ],
      [
        "Ġtyp",
        "e"
      ],
      [
        "on",
        "es"
      ],
      [
        "Ġn",
        "ature"
      ],
      [
        "c",
        "o"
      ],
      [
        "Ġ",
        "Â"
      ],
      [
        "Ġre",
        "pl"
      ],
      [
        "ĠA",
        "pp"
      ],
      [
        "ĠM",
        "y"
      ],
      [
        "ĠPro",
        "gram"
      ],
      [
        "Ġph",
        "ot"
      ],
      [
        "ĠEurope",
        "an"
      ],
      [
        "U",
        "R"
      ],
      [
        "Ġ",
        "i"
      ],
      [
        "Ġh",
        "ours"
      ],
      [
        "Ġre",
        "view"
      ],
      [
        "1",
        "3"
      ],
      [
        "Ġ",
        "z"
      ],
      [
        "Ġs",
        "ource"
      ],
      [
        "Ġf",
        "ire"
      ],
      [
        "ĠG",
        "ener"
      ],
      [
        "Ġsc",
        "ient"
      ],
      [
        "T",
        "o"
      ],
      [
        "ow",
        "s"
      ],
      [
        "Ġy",
        "et"
      ],
      [
        "ĠR",
        "el"
      ],
      [
        "Ġup",
        "on"
      ],
      [
        "Ġqu",
        "ality"
      ],
      [
        "ust",
        "r"
      ],
      [
        "Ġar",
        "m"
      ],
      [
        "Ġinter",
        "view"
      ],
      [
        "Ġaw",
        "are"
      ],
      [
        "Ġsim",
        "ilar"
      ],
      [
        "re",
        "me"
      ],
      [
        "Ġprogram",
        "s"
      ],
      [
        "2",
        "5"
      ],
      [
        "re",
        "ct"
      ],
      [
        "id",
        "ed"
      ],
      [
        "ir",
        "it"
      ],
      [
        "iv",
        "il"
      ],
      [
        "Ġab",
        "s"
      ],
      [
        "Ġac",
        "cept"
      ],
      [
        "Ġcur",
        "ricul"
      ],
      [
        "Ġbelie",
        "ve"
      ],
      [
        "Ġdise",
        "ase"
      ],
      [
        "ĠS",
        "ec"
      ],
      [
        "Ġper",
        "cent"
      ],
      [
        "Ġcre",
        "ated"
      ],
      [
        "ĠApr",
        "il"
      ],
      [
        "a",
        "ith"
      ],
      [
        "l",
        "in"
      ],
      [
        "Ø",
        "±"
      ],
      [
        "Ġc",
        "amp"
      ],
      [
        "Ġl",
        "ine"
      ],
      [
        "et",
        "imes"
      ],
      [
        "ĠM",
        "e"
      ],
      [
        "Ġ0",
        "7"
      ],
      [
        "Ġcult",
        "ural"
      ],
      [
        "6",
        "0"
      ],
      [
        "u",
        "ary"
      ],
      [
        "Ġf",
        "il"
      ],
      [
        "our",
        "nal"
      ],
      [
        "Ġneed",
        "ed"
      ],
      [
        "Ġref",
        "lect"
      ],
      [
        "ĠSe",
        "an"
      ],
      [
        "en",
        "e"
      ],
      [
        "Ġp",
        "le"
      ],
      [
        "ĠM",
        "c"
      ],
      [
        "ĠSe",
        "pt"
      ],
      [
        "Ġc",
        "ustom"
      ],
      [
        "ĠR",
        "ec"
      ],
      [
        "Ġus",
        "ually"
      ],
      [
        "ov",
        "ed"
      ],
      [
        "Ġperson",
        "al"
      ],
      [
        "i",
        "ation"
      ],
      [
        "w",
        "h"
      ],
      [
        "at",
        "ives"
      ],
      [
        "Ġl",
        "a"
      ],
      [
        "ĠC",
        "o"
      ],
      [
        "Ġdo",
        "ing"
      ],
      [
        "Ġhig",
        "her"
      ],
      [
        "et",
        "ic"
      ],
      [
        "ay",
        "lor"
      ],
      [
        "Ġ2",
        "1"
      ],
      [
        "Ġcho",
        "ice"
      ],
      [
        "ĠV",
        "al"
      ],
      [
        "ys",
        "is"
      ],
      [
        "ĠG",
        "roup"
      ],
      [
        "Ġpre",
        "p"
      ],
      [
        "---|",
        "---|"
      ],
      [
        "Ġfamil",
        "ies"
      ],
      [
        "ĠA",
        "m"
      ],
      [
        "us",
        "ion"
      ],
      [
        "Ġ19",
        "8"
      ],
      [
        "1",
        "4"
      ],
      [
        "Ġo",
        "pp"
      ],
      [
        "à¤",
        "°"
      ],
      [
        "Ġob",
        "ject"
      ],
      [
        "ĠC",
        "ouncil"
      ],
      [
        "if",
        "est"
      ],
      [
        "ĠD",
        "ay"
      ],
      [
        "Ġapp",
        "ear"
      ],
      [
        "A",
        "S"
      ],
      [
        "F",
        "or"
      ],
      [
        "Ġs",
        "ent"
      ],
      [
        "Ġw",
        "in"
      ],
      [
        "Ġf",
        "ace"
      ],
      [
        "ad",
        "em"
      ],
      [
        "Ġev",
        "ents"
      ],
      [
        "Ġapp",
        "lic"
      ],
      [
        "Ġresp",
        "ect"
      ],
      [
        "Ġdoes",
        "n"
      ],
      [
        "en",
        "n"
      ],
      [
        "Ġc",
        "ases"
      ],
      [
        "Ġd",
        "iv"
      ],
      [
        "Ġre",
        "d"
      ],
      [
        "Ġst",
        "ep"
      ],
      [
        "ĠO",
        "ct"
      ],
      [
        "ep",
        "end"
      ],
      [
        "Ġact",
        "ually"
      ],
      [
        "ful",
        "ly"
      ],
      [
        "Ġiss",
        "ue"
      ],
      [
        "m",
        "ar"
      ],
      [
        "he",
        "ad"
      ],
      [
        "Ġw",
        "ind"
      ],
      [
        "Ġn",
        "ight"
      ],
      [
        "Ġwhe",
        "ther"
      ],
      [
        "1",
        "7"
      ],
      [
        "c",
        "ome"
      ],
      [
        "ĠA",
        "g"
      ],
      [
        "ĠC",
        "ons"
      ],
      [
        "Ġad",
        "vert"
      ],
      [
        "Ġag",
        "re"
      ],
      [
        "ĠPro",
        "v"
      ],
      [
        "ĠEng",
        "lish"
      ],
      [
        "Ġexperien",
        "ces"
      ],
      [
        "Ġappropri",
        "ate"
      ],
      [
        "2",
        "3"
      ],
      [
        "ra",
        "b"
      ],
      [
        "ĠP",
        "ar"
      ],
      [
        "Ġcl",
        "a"
      ],
      [
        "Ġwork",
        "s"
      ],
      [
        "Ġev",
        "idence"
      ],
      [
        "ĠYou",
        "ng"
      ],
      [
        "Ġcond",
        "itions"
      ],
      [
        "Ġs",
        "ound"
      ],
      [
        "al",
        "es"
      ],
      [
        "im",
        "ent"
      ],
      [
        "Ġad",
        "op"
      ],
      [
        "Ġmem",
        "ber"
      ],
      [
        "ĠSm",
        "ith"
      ],
      [
        "Ã",
        "©"
      ],
      [
        "on",
        "se"
      ],
      [
        "ad",
        "a"
      ],
      [
        "Ġv",
        "ict"
      ],
      [
        "Ġ18",
        "5"
      ],
      [
        "Ġra",
        "d"
      ],
      [
        "Ġtem",
        "per"
      ],
      [
        "er",
        "y"
      ],
      [
        "it",
        "ch"
      ],
      [
        "Ġm",
        "atter"
      ],
      [
        "Ġem",
        "ploy"
      ],
      [
        "Ġfun",
        "ction"
      ],
      [
        "a",
        "ut"
      ],
      [
        "v",
        "ant"
      ],
      [
        "Ġ",
        "/"
      ],
      [
        "it",
        "es"
      ],
      [
        "Ġcon",
        "cept"
      ],
      [
        "ist",
        "ic"
      ],
      [
        "A",
        "l"
      ],
      [
        "se",
        "c"
      ],
      [
        "Ġsu",
        "n"
      ],
      [
        "res",
        "h"
      ],
      [
        "Ġs",
        "ens"
      ],
      [
        "at",
        "ers"
      ],
      [
        "Ġc",
        "ut"
      ],
      [
        "is",
        "es"
      ],
      [
        "Ġl",
        "ives"
      ],
      [
        "Ġsu",
        "per"
      ],
      [
        "Ġ18",
        "4"
      ],
      [
        "Ġreg",
        "ion"
      ],
      [
        "Ġmed",
        "ia"
      ],
      [
        "Ġreport",
        "ed"
      ],
      [
        "ÂłÂłÂłÂł",
        "ÂłÂłÂłÂł"
      ],
      [
        "ĠSoc",
        "iety"
      ],
      [
        "Ġnecess",
        "ary"
      ],
      [
        "k",
        "now"
      ],
      [
        "Ġp",
        "ort"
      ],
      [
        "ab",
        "les"
      ],
      [
        "Ġcomp",
        "et"
      ],
      [
        "Ġqu",
        "ick"
      ],
      [
        "Ġtra",
        "dition"
      ],
      [
        "Ġspec",
        "ies"
      ],
      [
        "b",
        "and"
      ],
      [
        "Ġs",
        "ect"
      ],
      [
        "en",
        "ces"
      ],
      [
        "it",
        "er"
      ],
      [
        "ra",
        "d"
      ],
      [
        "ac",
        "hes"
      ],
      [
        "pt",
        "ion"
      ],
      [
        "te",
        "xts"
      ],
      [
        "Ġvis",
        "it"
      ],
      [
        "Ġsing",
        "le"
      ],
      [
        "c",
        "hed"
      ],
      [
        "Ġc",
        "ell"
      ],
      [
        "Ġf",
        "at"
      ],
      [
        "se",
        "qu"
      ],
      [
        "Ġj",
        "ob"
      ],
      [
        "Ġsur",
        "face"
      ],
      [
        "Ġmod",
        "el"
      ],
      [
        "Ġcrit",
        "ical"
      ],
      [
        "1",
        "6"
      ],
      [
        "z",
        "e"
      ],
      [
        "Ġ",
        "Ø§"
      ],
      [
        "Ġn",
        "orm"
      ],
      [
        "ol",
        "l"
      ],
      [
        "Ġcan",
        "not"
      ],
      [
        "Ġgif",
        "ted"
      ],
      [
        "ĠGener",
        "al"
      ],
      [
        "'",
        "ll"
      ],
      [
        "S",
        "he"
      ],
      [
        "Ġl",
        "o"
      ],
      [
        "ĠĠĠĠĠĠĠĠ",
        "ĠĠ"
      ],
      [
        "ĠH",
        "om"
      ],
      [
        "ist",
        "ics"
      ],
      [
        "us",
        "h"
      ],
      [
        "Ġse",
        "lect"
      ],
      [
        "pl",
        "ain"
      ],
      [
        "Ġbr",
        "ing"
      ],
      [
        "ann",
        "el"
      ],
      [
        "Ġmark",
        "et"
      ],
      [
        "Ġfriend",
        "s"
      ],
      [
        "u",
        "ge"
      ],
      [
        "w",
        "ater"
      ],
      [
        "Ġs",
        "old"
      ],
      [
        "Ġl",
        "ack"
      ],
      [
        "Ġbe",
        "gan"
      ],
      [
        "Ġj",
        "oin"
      ],
      [
        "Ġcomp",
        "any"
      ],
      [
        "Ġconsid",
        "ered"
      ],
      [
        "I",
        "C"
      ],
      [
        "ers",
        "on"
      ],
      [
        "Ġgra",
        "de"
      ],
      [
        "ĠStud",
        "ents"
      ],
      [
        "Ġtru",
        "e"
      ],
      [
        "i",
        "ber"
      ],
      [
        "Ġpro",
        "gress"
      ],
      [
        "Ġex",
        "c"
      ],
      [
        "Ġ5",
        "0"
      ],
      [
        "Ġright",
        "s"
      ],
      [
        "ĠPres",
        "ident"
      ],
      [
        "ĠSept",
        "ember"
      ],
      [
        "d",
        "om"
      ],
      [
        "p",
        "ut"
      ],
      [
        "ce",
        "ed"
      ],
      [
        "Ġpro",
        "b"
      ],
      [
        "op",
        "h"
      ],
      [
        "ren",
        "g"
      ],
      [
        "Ġpre",
        "vious"
      ],
      [
        "Ġlong",
        "er"
      ],
      [
        "Ġgrow",
        "th"
      ],
      [
        "r",
        "ition"
      ],
      [
        "Ġs",
        "ays"
      ],
      [
        "Ġm",
        "or"
      ],
      [
        "ĠC",
        "al"
      ],
      [
        "ĠJ",
        "u"
      ],
      [
        "ĠAr",
        "t"
      ],
      [
        "Ġobs",
        "erv"
      ],
      [
        "m",
        "a"
      ],
      [
        "is",
        "ions"
      ],
      [
        "Ġd",
        "om"
      ],
      [
        "Ġd",
        "oc"
      ],
      [
        "Ġd",
        "est"
      ],
      [
        "ĠA",
        "ug"
      ],
      [
        "Ġpl",
        "ant"
      ],
      [
        "Ġstr",
        "ateg"
      ],
      [
        "H",
        "e"
      ],
      [
        "Ġ",
        "vers"
      ],
      [
        "it",
        "able"
      ],
      [
        "ul",
        "ations"
      ],
      [
        "Ġpr",
        "incip"
      ],
      [
        "Ġactiv",
        "ity"
      ],
      [
        "ĠIs",
        "rael"
      ],
      [
        "c",
        "ript"
      ],
      [
        "Ġcom",
        "es"
      ],
      [
        "Ġde",
        "g"
      ],
      [
        "Ġident",
        "ify"
      ],
      [
        "Ġterm",
        "s"
      ],
      [
        "Ġfre",
        "qu"
      ],
      [
        "g",
        "round"
      ],
      [
        "Ġc",
        "over"
      ],
      [
        "ed",
        "i"
      ],
      [
        "Ġin",
        "iti"
      ],
      [
        "Ġ2",
        "7"
      ],
      [
        "Ġsur",
        "v"
      ],
      [
        "à¥",
        "ĩ"
      ],
      [
        "ĠĠĠĠĠĠĠĠĠĠĠĠ",
        "ĠĠ"
      ],
      [
        "I",
        "T"
      ],
      [
        "Ù",
        "ĩ"
      ],
      [
        "Ġh",
        "us"
      ],
      [
        "Ġh",
        "alf"
      ],
      [
        "Ġinclud",
        "ed"
      ],
      [
        "Ġ",
        "x"
      ],
      [
        "Ġs",
        "ize"
      ],
      [
        "ĠS",
        "y"
      ],
      [
        "ĠP",
        "re"
      ],
      [
        "ĠE",
        "ast"
      ],
      [
        "Ġs",
        "n"
      ],
      [
        "Ġv",
        "iol"
      ],
      [
        "Ġint",
        "eg"
      ],
      [
        "Ġlook",
        "ing"
      ],
      [
        "r",
        "im"
      ],
      [
        "Ġd",
        "ig"
      ],
      [
        "ra",
        "cy"
      ],
      [
        "ir",
        "th"
      ],
      [
        "ĠB",
        "ro"
      ],
      [
        "ĠE",
        "m"
      ],
      [
        "Ġcont",
        "ent"
      ],
      [
        "Ġget",
        "ting"
      ],
      [
        "Ġav",
        "oid"
      ],
      [
        "il",
        "le"
      ],
      [
        "Ġe",
        "mer"
      ],
      [
        "Ġl",
        "ab"
      ],
      [
        "Ġit",
        "self"
      ],
      [
        "Ġ20",
        "22"
      ],
      [
        "à¥",
        "į"
      ],
      [
        "ĠPl",
        "an"
      ],
      [
        "4",
        "0"
      ],
      [
        "n",
        "ed"
      ],
      [
        "o",
        "o"
      ],
      [
        "es",
        "e"
      ],
      [
        "Ġm",
        "ention"
      ],
      [
        "ul",
        "es"
      ],
      [
        "ose",
        "ph"
      ],
      [
        "Ġdef",
        "in"
      ],
      [
        "ĠAmeric",
        "a"
      ],
      [
        "Ġpri",
        "or"
      ],
      [
        "Ġs",
        "ources"
      ],
      [
        "Ġf",
        "isher"
      ],
      [
        "ver",
        "age"
      ],
      [
        "ad",
        "es"
      ],
      [
        "ĠW",
        "est"
      ],
      [
        "Ġde",
        "al"
      ],
      [
        "ens",
        "ive"
      ],
      [
        "Ġstart",
        "ed"
      ],
      [
        "Ġche",
        "ck"
      ],
      [
        "ĠRes",
        "earch"
      ],
      [
        "Ġto",
        "ld"
      ],
      [
        "Ġre",
        "v"
      ],
      [
        "Ġl",
        "ived"
      ],
      [
        "rough",
        "t"
      ],
      [
        "ĠWh",
        "ile"
      ],
      [
        "Ġpract",
        "ices"
      ],
      [
        "Ġide",
        "as"
      ],
      [
        "A",
        "t"
      ],
      [
        "R",
        "O"
      ],
      [
        "e",
        "y"
      ],
      [
        "l",
        "ike"
      ],
      [
        "m",
        "on"
      ],
      [
        "re",
        "w"
      ],
      [
        "Ġp",
        "ub"
      ],
      [
        "Ġf",
        "elt"
      ],
      [
        "an",
        "ks"
      ],
      [
        "Ġd",
        "rug"
      ],
      [
        "Ġreg",
        "ular"
      ],
      [
        "ĠJan",
        "uary"
      ],
      [
        "l",
        "ight"
      ],
      [
        "y",
        "le"
      ],
      [
        "Ġt",
        "aking"
      ],
      [
        "Ġon",
        "line"
      ],
      [
        "Ġ1",
        "00"
      ],
      [
        "os",
        "ition"
      ],
      [
        "ĠF",
        "eb"
      ],
      [
        "Ġcont",
        "ext"
      ],
      [
        "Ġout",
        "side"
      ],
      [
        "Ġpot",
        "ential"
      ],
      [
        "Ġhistor",
        "ical"
      ],
      [
        "Ġto",
        "wards"
      ],
      [
        "ic",
        "ro"
      ],
      [
        "um",
        "e"
      ],
      [
        "Ġse",
        "arch"
      ],
      [
        "Ġint",
        "ro"
      ],
      [
        "Ġany",
        "thing"
      ],
      [
        "Ġorgan",
        "iz"
      ],
      [
        "Ġsit",
        "uation"
      ],
      [
        "ĠEar",
        "th"
      ],
      [
        "Û",
        "Į"
      ],
      [
        "en",
        "c"
      ],
      [
        "Ġre",
        "duce"
      ],
      [
        "ĠC",
        "ont"
      ],
      [
        "Ġst",
        "reng"
      ],
      [
        "Ġex",
        "erc"
      ],
      [
        "Ġsh",
        "are"
      ],
      [
        "osp",
        "ital"
      ],
      [
        "Ġbre",
        "ak"
      ],
      [
        "P",
        "h"
      ],
      [
        "c",
        "ient"
      ],
      [
        "s",
        "es"
      ],
      [
        "ĠA",
        "nt"
      ],
      [
        "ĠC",
        "ar"
      ],
      [
        "Ġ2",
        "8"
      ],
      [
        "ĠE",
        "l"
      ],
      [
        "Ġ18",
        "6"
      ],
      [
        "Ġrel",
        "ated"
      ],
      [
        "Ġeffect",
        "ive"
      ],
      [
        "Ġfin",
        "anc"
      ],
      [
        "Ġtot",
        "al"
      ],
      [
        "Ġhus",
        "band"
      ],
      [
        "Ġm",
        "at"
      ],
      [
        "Ġd",
        "ut"
      ],
      [
        "ce",
        "mber"
      ],
      [
        "Ġal",
        "most"
      ],
      [
        "ap",
        "ter"
      ],
      [
        "ĠDe",
        "velop"
      ],
      [
        "Ġser",
        "ies"
      ],
      [
        "Ġeconom",
        "ic"
      ],
      [
        "min",
        "ist"
      ],
      [
        "ibr",
        "ary"
      ],
      [
        "Â",
        "Ń"
      ],
      [
        "Ù",
        "Ĩ"
      ],
      [
        "ĠS",
        "outh"
      ],
      [
        "ur",
        "ity"
[...]
